{
  "version": "1.0",
  "truncation": {
    "direction": "Right",
    "max_length": 32,
    "strategy": "LongestFirst",
    "stride": 0
  },
  "padding": {
    "strategy": "BatchLongest",
    "direction": "Right",
    "pad_to_multiple_of": null,
    "pad_id": 0,
    "pad_type_id": 0,
    "pad_token": "[PAD]"
  },
  "added_tokens": [
    {
      "id": 0,
      "content": "[PAD]",
      "single_word": false,
      "lstrip": false,
      "rstrip": false,
      "normalized": false,
      "special": true
    },
    {
      "id": 1,
      "content": "[UNK]",
      "single_word": false,
      "lstrip": false,
      "rstrip": false,
      "normalized": false,
      "special": true
    },
    {
      "id": 2,
      "content": "[BOS]",
      "single_word": false,
      "lstrip": false,
      "rstrip": false,
      "normalized": false,
      "special": true
    },
    {
      "id": 3,
      "content": "[EOS]",
      "single_word": false,
      "lstrip": false,
      "rstrip": false,
      "normalized": false,
      "special": true
    }
  ],
  "normalizer": {
    "type": "Sequence",
    "normalizers": [
      {
        "type": "NFKC"
      },
      {
        "type": "Lowercase"
      },
      {
        "type": "Replace",
        "pattern": {
          "Regex": "[^a-z0-9áéíóúüñ¿¡\\.\\,\\!\\?\\:\\;\\\"\\'\\-\\(\\)\\s]"
        },
        "content": ""
      },
      {
        "type": "Replace",
        "pattern": {
          "Regex": "\\s+"
        },
        "content": " "
      }
    ]
  },
  "pre_tokenizer": {
    "type": "Whitespace"
  },
  "post_processor": null,
  "decoder": null,
  "model": {
    "type": "BPE",
    "dropout": null,
    "unk_token": "[UNK]",
    "continuing_subword_prefix": null,
    "end_of_word_suffix": null,
    "fuse_unk": false,
    "byte_fallback": false,
    "ignore_merges": false,
    "vocab": {
      "[PAD]": 0,
      "[UNK]": 1,
      "[BOS]": 2,
      "[EOS]": 3,
      "!": 4,
      "\"": 5,
      "'": 6,
      "(": 7,
      ")": 8,
      ",": 9,
      "-": 10,
      ".": 11,
      "0": 12,
      "1": 13,
      "2": 14,
      "3": 15,
      "4": 16,
      "5": 17,
      "6": 18,
      "7": 19,
      "8": 20,
      "9": 21,
      ":": 22,
      ";": 23,
      "?": 24,
      "a": 25,
      "b": 26,
      "c": 27,
      "d": 28,
      "e": 29,
      "f": 30,
      "g": 31,
      "h": 32,
      "i": 33,
      "j": 34,
      "k": 35,
      "l": 36,
      "m": 37,
      "n": 38,
      "o": 39,
      "p": 40,
      "q": 41,
      "r": 42,
      "s": 43,
      "t": 44,
      "u": 45,
      "v": 46,
      "w": 47,
      "x": 48,
      "y": 49,
      "z": 50,
      "¡": 51,
      "¿": 52,
      "á": 53,
      "é": 54,
      "í": 55,
      "ñ": 56,
      "ó": 57,
      "ú": 58,
      "ü": 59,
      "es": 60,
      "er": 61,
      "en": 62,
      "to": 63,
      "th": 64,
      "ar": 65,
      "an": 66,
      "in": 67,
      "as": 68,
      "on": 69,
      "de": 70,
      "is": 71,
      "or": 72,
      "ou": 73,
      "os": 74,
      "el": 75,
      "qu": 76,
      "do": 77,
      "al": 78,
      "the": 79,
      "la": 80,
      "no": 81,
      "re": 82,
      "te": 83,
      "me": 84,
      "un": 85,
      "ha": 86,
      "le": 87,
      "ta": 88,
      "tom": 89,
      "you": 90,
      "ti": 91,
      "que": 92,
      "ing": 93,
      "he": 94,
      "se": 95,
      "di": 96,
      "at": 97,
      "ci": 98,
      "co": 99,
      "tr": 100,
      "ve": 101,
      "da": 102,
      "lo": 103,
      "it": 104,
      "ro": 105,
      "ch": 106,
      "us": 107,
      "go": 108,
      "con": 109,
      "ed": 110,
      "ca": 111,
      "li": 112,
      "mi": 113,
      "cu": 114,
      "be": 115,
      "est": 116,
      "ri": 117,
      "ver": 118,
      "of": 119,
      "ma": 120,
      "mp": 121,
      "so": 122,
      "ab": 123,
      "su": 124,
      "ho": 125,
      "ía": 126,
      "si": 127,
      "vi": 128,
      "ce": 129,
      "par": 130,
      "ra": 131,
      "mar": 132,
      "ere": 133,
      "los": 134,
      "ent": 135,
      "and": 136,
      "for": 137,
      "mo": 138,
      "per": 139,
      "ue": 140,
      "por": 141,
      "ld": 142,
      "wi": 143,
      "that": 144,
      "ke": 145,
      "ll": 146,
      "mu": 147,
      "ne": 148,
      "una": 149,
      "ad": 150,
      "tu": 151,
      "ter": 152,
      "hi": 153,
      "ten": 154,
      "ir": 155,
      "ón": 156,
      "mos": 157,
      "can": 158,
      "we": 159,
      "las": 160,
      "esta": 161,
      "was": 162,
      "my": 163,
      "pe": 164,
      "are": 165,
      "all": 166,
      "men": 167,
      "po": 168,
      "qui": 169,
      "man": 170,
      "está": 171,
      "gh": 172,
      "gu": 173,
      "bi": 174,
      "ant": 175,
      "ay": 176,
      "ba": 177,
      "have": 178,
      "this": 179,
      "bo": 180,
      "él": 181,
      "mary": 182,
      "pa": 183,
      "don": 184,
      "res": 185,
      "ge": 186,
      "ás": 187,
      "jo": 188,
      "she": 189,
      "pu": 190,
      "bu": 191,
      "pi": 192,
      "pro": 193,
      "one": 194,
      "wh": 195,
      "des": 196,
      "hat": 197,
      "fa": 198,
      "vo": 199,
      "sa": 200,
      "ni": 201,
      "now": 202,
      "with": 203,
      "fi": 204,
      "what": 205,
      "not": 206,
      "para": 207,
      "ga": 208,
      "his": 209,
      "era": 210,
      "ex": 211,
      "ted": 212,
      "ella": 213,
      "ando": 214,
      "out": 215,
      "your": 216,
      "her": 217,
      "cer": 218,
      "ould": 219,
      "ght": 220,
      "tien": 221,
      "na": 222,
      "hab": 223,
      "qué": 224,
      "esto": 225,
      "son": 226,
      "cas": 227,
      "ther": 228,
      "has": 229,
      "dos": 230,
      "ly": 231,
      "tra": 232,
      "car": 233,
      "mb": 234,
      "fu": 235,
      "ero": 236,
      "más": 237,
      "very": 238,
      "fe": 239,
      "ok": 240,
      "ces": 241,
      "ck": 242,
      "cho": 243,
      "tion": 244,
      "tar": 245,
      "ble": 246,
      "thing": 247,
      "emp": 248,
      "dad": 249,
      "did": 250,
      "der": 251,
      "ja": 252,
      "ven": 253,
      "day": 254,
      "comp": 255,
      "am": 256,
      "want": 257,
      "wor": 258,
      "ción": 259,
      "pen": 260,
      "know": 261,
      "pre": 262,
      "tan": 263,
      "like": 264,
      "ado": 265,
      "ac": 266,
      "pue": 267,
      "mente": 268,
      "ran": 269,
      "mis": 270,
      "pr": 271,
      "del": 272,
      "tel": 273,
      "va": 274,
      "cre": 275,
      "min": 276,
      "yo": 277,
      "there": 278,
      "lar": 279,
      "him": 280,
      "du": 281,
      "they": 282,
      "mor": 283,
      "ente": 284,
      "és": 285,
      "ple": 286,
      "some": 287,
      "pas": 288,
      "how": 289,
      "ser": 290,
      "ink": 291,
      "od": 292,
      "lle": 293,
      "will": 294,
      "gi": 295,
      "gus": 296,
      "aba": 297,
      "che": 298,
      "hor": 299,
      "tos": 300,
      "les": 301,
      "ol": 302,
      "tiene": 303,
      "lan": 304,
      "st": 305,
      "any": 306,
      "ust": 307,
      "lu": 308,
      "ali": 309,
      "get": 310,
      "dis": 311,
      "este": 312,
      "gar": 313,
      "vis": 314,
      "id": 315,
      "nos": 316,
      "oun": 317,
      "up": 318,
      "end": 319,
      "pla": 320,
      "cor": 321,
      "time": 322,
      "our": 323,
      "muy": 324,
      "dr": 325,
      "ese": 326,
      "way": 327,
      "fro": 328,
      "hacer": 329,
      "mas": 330,
      "eso": 331,
      "como": 332,
      "tor": 333,
      "sh": 334,
      "does": 335,
      "if": 336,
      "án": 337,
      "estoy": 338,
      "from": 339,
      "za": 340,
      "when": 341,
      "had": 342,
      "fue": 343,
      "fin": 344,
      "dar": 345,
      "com": 346,
      "see": 347,
      "think": 348,
      "come": 349,
      "fr": 350,
      "chi": 351,
      "ear": 352,
      "about": 353,
      "much": 354,
      "cos": 355,
      "ty": 356,
      "by": 357,
      "but": 358,
      "hay": 359,
      "cia": 360,
      "tro": 361,
      "ase": 362,
      "every": 363,
      "aqu": 364,
      "bre": 365,
      "who": 366,
      "ish": 367,
      "ong": 368,
      "ber": 369,
      "bro": 370,
      "tengo": 371,
      "ak": 372,
      "lla": 373,
      "eli": 374,
      "tal": 375,
      "vor": 376,
      "gr": 377,
      "imp": 378,
      "endo": 379,
      "én": 380,
      "añ": 381,
      "than": 382,
      "let": 383,
      "estaba": 384,
      "cal": 385,
      "pero": 386,
      "hu": 387,
      "would": 388,
      "fri": 389,
      "here": 390,
      "ves": 391,
      "casa": 392,
      "gra": 393,
      "work": 394,
      "todo": 395,
      "use": 396,
      "traba": 397,
      "gun": 398,
      "ías": 399,
      "favor": 400,
      "et": 401,
      "cion": 402,
      "nu": 403,
      "pos": 404,
      "fer": 405,
      "sab": 406,
      "au": 407,
      "sal": 408,
      "sin": 409,
      "ana": 410,
      "mal": 411,
      "quiero": 412,
      "ally": 413,
      "có": 414,
      "more": 415,
      "didn": 416,
      "hel": 417,
      "ton": 418,
      "aquí": 419,
      "ard": 420,
      "ina": 421,
      "mon": 422,
      "sus": 423,
      "je": 424,
      "wo": 425,
      "ts": 426,
      "good": 427,
      "eres": 428,
      "look": 429,
      "were": 430,
      "wn": 431,
      "cuando": 432,
      "ell": 433,
      "puedo": 434,
      "read": 435,
      "cri": 436,
      "dy": 437,
      "dio": 438,
      "gua": 439,
      "pon": 440,
      "hora": 441,
      "where": 442,
      "neces": 443,
      "mes": 444,
      "deci": 445,
      "ya": 446,
      "going": 447,
      "ning": 448,
      "br": 449,
      "inter": 450,
      "uni": 451,
      "spe": 452,
      "cen": 453,
      "ano": 454,
      "estu": 455,
      "tiemp": 456,
      "gusta": 457,
      "buen": 458,
      "ree": 459,
      "todos": 460,
      "could": 461,
      "new": 462,
      "ep": 463,
      "tiempo": 464,
      "die": 465,
      "hap": 466,
      "need": 467,
      "mbre": 468,
      "af": 469,
      "puede": 470,
      "ous": 471,
      "bien": 472,
      "why": 473,
      "ju": 474,
      "sta": 475,
      "person": 476,
      "cha": 477,
      "vez": 478,
      "pare": 479,
      "elo": 480,
      "sé": 481,
      "ño": 482,
      "say": 483,
      "pri": 484,
      "book": 485,
      "friend": 486,
      "should": 487,
      "ger": 488,
      "tri": 489,
      "bus": 490,
      "algo": 491,
      "just": 492,
      "take": 493,
      "tas": 494,
      "mucho": 495,
      "doesn": 496,
      "nada": 497,
      "ach": 498,
      "got": 499,
      "sel": 500,
      "proble": 501,
      "stu": 502,
      "ought": 503,
      "io": 504,
      "zo": 505,
      "been": 506,
      "den": 507,
      "día": 508,
      "ans": 509,
      "may": 510,
      "help": 511,
      "ded": 512,
      "ct": 513,
      "sto": 514,
      "din": 515,
      "jar": 516,
      "ment": 517,
      "cono": 518,
      "peo": 519,
      "pres": 520,
      "ru": 521,
      "ayu": 522,
      "pued": 523,
      "gan": 524,
      "plan": 525,
      "people": 526,
      "please": 527,
      "king": 528,
      "eat": 529,
      "never": 530,
      "speak": 531,
      "estar": 532,
      "fo": 533,
      "eron": 534,
      "antes": 535,
      "tell": 536,
      "cul": 537,
      "cómo": 538,
      "cuán": 539,
      "deber": 540,
      "il": 541,
      "ound": 542,
      "ry": 543,
      "too": 544,
      "jor": 545,
      "ine": 546,
      "ela": 547,
      "tros": 548,
      "whi": 549,
      "tur": 550,
      "ap": 551,
      "esper": 552,
      "red": 553,
      "ento": 554,
      "ellos": 555,
      "dif": 556,
      "year": 557,
      "play": 558,
      "nun": 559,
      "pad": 560,
      "nunca": 561,
      "das": 562,
      "nue": 563,
      "love": 564,
      "ido": 565,
      "many": 566,
      "mejor": 567,
      "row": 568,
      "nues": 569,
      "wat": 570,
      "solo": 571,
      "pan": 572,
      "ur": 573,
      "gre": 574,
      "compr": 575,
      "ful": 576,
      "ele": 577,
      "ami": 578,
      "able": 579,
      "ting": 580,
      "mañ": 581,
      "cle": 582,
      "bos": 583,
      "soy": 584,
      "esa": 585,
      "dón": 586,
      "eng": 587,
      "home": 588,
      "segu": 589,
      "low": 590,
      "siemp": 591,
      "siempre": 592,
      "kes": 593,
      "ún": 594,
      "ess": 595,
      "mbi": 596,
      "quer": 597,
      "om": 598,
      "last": 599,
      "años": 600,
      "mañana": 601,
      "bet": 602,
      "mí": 603,
      "try": 604,
      "self": 605,
      "sti": 606,
      "ked": 607,
      "ide": 608,
      "ahora": 609,
      "tes": 610,
      "only": 611,
      "verdad": 612,
      "impor": 613,
      "lit": 614,
      "vol": 615,
      "hace": 616,
      "dónde": 617,
      "quién": 618,
      "vida": 619,
      "under": 620,
      "están": 621,
      "contr": 622,
      "ia": 623,
      "escu": 624,
      "tru": 625,
      "ocu": 626,
      "fran": 627,
      "ved": 628,
      "dió": 629,
      "estás": 630,
      "necesi": 631,
      "mat": 632,
      "hablar": 633,
      "night": 634,
      "fore": 635,
      "oney": 636,
      "ways": 637,
      "ban": 638,
      "ig": 639,
      "pregun": 640,
      "sen": 641,
      "dre": 642,
      "trabajo": 643,
      "ouse": 644,
      "long": 645,
      "mer": 646,
      "back": 647,
      "creo": 648,
      "mana": 649,
      "dor": 650,
      "something": 651,
      "tienes": 652,
      "won": 653,
      "tó": 654,
      "toda": 655,
      "gas": 656,
      "them": 657,
      "make": 658,
      "said": 659,
      "wa": 660,
      "room": 661,
      "dijo": 662,
      "old": 663,
      "tras": 664,
      "money": 665,
      "tle": 666,
      "iste": 667,
      "always": 668,
      "child": 669,
      "jos": 670,
      "gran": 671,
      "bor": 672,
      "bar": 673,
      "lot": 674,
      "two": 675,
      "tú": 676,
      "ough": 677,
      "dinero": 678,
      "lis": 679,
      "ros": 680,
      "ving": 681,
      "lor": 682,
      "ers": 683,
      "gui": 684,
      "right": 685,
      "house": 686,
      "fir": 687,
      "dent": 688,
      "medi": 689,
      "must": 690,
      "went": 691,
      "hoy": 692,
      "sent": 693,
      "after": 694,
      "fun": 695,
      "xi": 696,
      "cil": 697,
      "pal": 698,
      "otros": 699,
      "puedes": 700,
      "ren": 701,
      "really": 702,
      "gen": 703,
      "sobre": 704,
      "había": 705,
      "today": 706,
      "stand": 707,
      "escri": 708,
      "libro": 709,
      "estudi": 710,
      "other": 711,
      "voy": 712,
      "ante": 713,
      "gain": 714,
      "ciones": 715,
      "vas": 716,
      "ob": 717,
      "comi": 718,
      "ind": 719,
      "father": 720,
      "ul": 721,
      "led": 722,
      "ión": 723,
      "decir": 724,
      "boston": 725,
      "ale": 726,
      "ino": 727,
      "life": 728,
      "ion": 729,
      "mun": 730,
      "pren": 731,
      "well": 732,
      "body": 733,
      "ms": 734,
      "ins": 735,
      "give": 736,
      "bas": 737,
      "nadie": 738,
      "into": 739,
      "usted": 740,
      "sed": 741,
      "cio": 742,
      "ki": 743,
      "cto": 744,
      "made": 745,
      "sor": 746,
      "tir": 747,
      "haber": 748,
      "bir": 749,
      "var": 750,
      "tres": 751,
      "reg": 752,
      "again": 753,
      "beca": 754,
      "hombre": 755,
      "poco": 756,
      "tado": 757,
      "sol": 758,
      "ft": 759,
      "over": 760,
      "lea": 761,
      "dan": 762,
      "chan": 763,
      "quiere": 764,
      "joh": 765,
      "ence": 766,
      "clas": 767,
      "cat": 768,
      "john": 769,
      "off": 770,
      "engl": 771,
      "gir": 772,
      "most": 773,
      "cin": 774,
      "scho": 775,
      "star": 776,
      "ña": 777,
      "isn": 778,
      "told": 779,
      "poli": 780,
      "ds": 781,
      "podr": 782,
      "wr": 783,
      "demas": 784,
      "ctor": 785,
      "mber": 786,
      "har": 787,
      "enta": 788,
      "anything": 789,
      "sabe": 790,
      "school": 791,
      "zar": 792,
      "cuer": 793,
      ".\"": 794,
      "gos": 795,
      "encia": 796,
      "happen": 797,
      "their": 798,
      "cep": 799,
      "dog": 800,
      "fami": 801,
      "fren": 802,
      "demasi": 803,
      "coun": 804,
      "ist": 805,
      "ose": 806,
      "via": 807,
      "int": 808,
      "itar": 809,
      "encontr": 810,
      "mano": 811,
      "first": 812,
      "erta": 813,
      "op": 814,
      "fas": 815,
      "almente": 816,
      "feel": 817,
      "late": 818,
      "mundo": 819,
      "turn": 820,
      "gente": 821,
      "vu": 822,
      "padre": 823,
      "nor": 824,
      "erte": 825,
      "three": 826,
      "mother": 827,
      "ador": 828,
      "before": 829,
      "better": 830,
      "tic": 831,
      "ity": 832,
      "demasiado": 833,
      "ic": 834,
      "still": 835,
      "ready": 836,
      "ío": 837,
      "lear": 838,
      "uno": 839,
      "mir": 840,
      "eve": 841,
      "idea": 842,
      "french": 843,
      "tenía": 844,
      "english": 845,
      "erto": 846,
      "years": 847,
      "ely": 848,
      "ños": 849,
      "tarde": 850,
      "alg": 851,
      "parece": 852,
      "mento": 853,
      "ras": 854,
      "little": 855,
      "tido": 856,
      "vía": 857,
      "ada": 858,
      "girl": 859,
      "cés": 860,
      "jer": 861,
      "char": 862,
      "live": 863,
      "put": 864,
      "talk": 865,
      "down": 866,
      "tions": 867,
      "stop": 868,
      "bol": 869,
      "hasta": 870,
      "hear": 871,
      "call": 872,
      "sho": 873,
      "teach": 874,
      "ever": 875,
      "maría": 876,
      "vos": 877,
      "thought": 878,
      "hed": 879,
      "noche": 880,
      "ped": 881,
      "orrow": 882,
      "tomorrow": 883,
      "rá": 884,
      "py": 885,
      "stay": 886,
      "len": 887,
      "cía": 888,
      "boy": 889,
      "buy": 890,
      "entes": 891,
      "wer": 892,
      "quieres": 893,
      "ís": 894,
      "dido": 895,
      "lés": 896,
      "inglés": 897,
      "tante": 898,
      "llo": 899,
      "nothing": 900,
      "hizo": 901,
      "sing": 902,
      "rió": 903,
      "beli": 904,
      "tori": 905,
      "tran": 906,
      "quier": 907,
      "everything": 908,
      "así": 909,
      "langua": 910,
      "tre": 911,
      "left": 912,
      "because": 913,
      "ene": 914,
      "sig": 915,
      "ani": 916,
      "vie": 917,
      "francés": 918,
      "00": 919,
      "minu": 920,
      "vir": 921,
      "tener": 922,
      "even": 923,
      "pit": 924,
      "temp": 925,
      "feli": 926,
      "world": 927,
      "these": 928,
      "emos": 929,
      "dó": 930,
      "ner": 931,
      "wan": 932,
      "só": 933,
      "japan": 934,
      "ester": 935,
      "wal": 936,
      "mismo": 937,
      "raz": 938,
      "comer": 939,
      "termin": 940,
      "came": 941,
      "cada": 942,
      "cuá": 943,
      "ary": 944,
      "nuevo": 945,
      "apren": 946,
      "aron": 947,
      "ise": 948,
      "cado": 949,
      "understand": 950,
      "estado": 951,
      "habla": 952,
      "quería": 953,
      "debería": 954,
      "hand": 955,
      "saw": 956,
      "friends": 957,
      "leep": 958,
      "cias": 959,
      "han": 960,
      "hecho": 961,
      "sur": 962,
      "children": 963,
      "ayer": 964,
      "xt": 965,
      "oso": 966,
      "bes": 967,
      "dé": 968,
      "bed": 969,
      "perro": 970,
      "name": 971,
      "nosotros": 972,
      "fes": 973,
      "tomás": 974,
      "find": 975,
      "care": 976,
      "vent": 977,
      "taría": 978,
      "used": 979,
      "ario": 980,
      "ek": 981,
      "dej": 982,
      "todavía": 983,
      "tación": 984,
      "rain": 985,
      "lti": 986,
      "pes": 987,
      "ken": 988,
      "cial": 989,
      "pel": 990,
      "días": 991,
      "má": 992,
      "algui": 993,
      "alguien": 994,
      "yester": 995,
      "yesterday": 996,
      "without": 997,
      "drink": 998,
      "dri": 999,
      "wait": 1000,
      "water": 1001,
      "ayudar": 1002,
      "vel": 1003,
      "sea": 1004,
      "ph": 1005,
      "cy": 1006,
      "auto": 1007,
      "erra": 1008,
      "asked": 1009,
      "dir": 1010,
      "wanted": 1011,
      "habi": 1012,
      "uso": 1013,
      "port": 1014,
      "cerca": 1015,
      "madre": 1016,
      "table": 1017,
      "cosas": 1018,
      "cti": 1019,
      "van": 1020,
      "rante": 1021,
      "ate": 1022,
      "ques": 1023,
      "ciu": 1024,
      "acci": 1025,
      "cuál": 1026,
      "which": 1027,
      "ida": 1028,
      "learn": 1029,
      "cambi": 1030,
      "libr": 1031,
      "ried": 1032,
      "leave": 1033,
      "pués": 1034,
      "después": 1035,
      "coche": 1036,
      "señ": 1037,
      "happy": 1038,
      "eri": 1039,
      "pien": 1040,
      "entre": 1041,
      "algun": 1042,
      "porque": 1043,
      "ados": 1044,
      "job": 1045,
      "forma": 1046,
      "tus": 1047,
      "week": 1048,
      "ror": 1049,
      "beau": 1050,
      "corre": 1051,
      "sit": 1052,
      "tenemos": 1053,
      "..": 1054,
      "palab": 1055,
      "sí": 1056,
      "ones": 1057,
      "desde": 1058,
      "lun": 1059,
      "camin": 1060,
      "fuera": 1061,
      "ciente": 1062,
      "posi": 1063,
      "ges": 1064,
      "keep": 1065,
      "pron": 1066,
      "ged": 1067,
      "yes": 1068,
      "ían": 1069,
      "hard": 1070,
      "study": 1071,
      "trans": 1072,
      "med": 1073,
      "agua": 1074,
      "next": 1075,
      "menos": 1076,
      "peri": 1077,
      "doctor": 1078,
      "ctu": 1079,
      "tin": 1080,
      "ris": 1081,
      "things": 1082,
      "ciudad": 1083,
      "took": 1084,
      "show": 1085,
      "mus": 1086,
      "watch": 1087,
      "ses": 1088,
      "problema": 1089,
      "bri": 1090,
      "open": 1091,
      "win": 1092,
      "lost": 1093,
      "pital": 1094,
      "cur": 1095,
      "empe": 1096,
      "mayor": 1097,
      "away": 1098,
      "contra": 1099,
      "tele": 1100,
      "sis": 1101,
      "eas": 1102,
      "bla": 1103,
      "reme": 1104,
      "big": 1105,
      "its": 1106,
      "otra": 1107,
      "sólo": 1108,
      "aca": 1109,
      "believe": 1110,
      "gustaría": 1111,
      "hun": 1112,
      "door": 1113,
      "cuándo": 1114,
      "doing": 1115,
      "vuel": 1116,
      "ask": 1117,
      "muchos": 1118,
      "amigos": 1119,
      "ció": 1120,
      "sure": 1121,
      "necesito": 1122,
      "ced": 1123,
      "últi": 1124,
      "consi": 1125,
      "sleep": 1126,
      "already": 1127,
      "profes": 1128,
      "brother": 1129,
      "gó": 1130,
      "niños": 1131,
      "war": 1132,
      "yan": 1133,
      "wants": 1134,
      "bad": 1135,
      "meet": 1136,
      "tambi": 1137,
      "being": 1138,
      "morning": 1139,
      "también": 1140,
      "ction": 1141,
      "ciendo": 1142,
      "mil": 1143,
      "great": 1144,
      "tamente": 1145,
      "nuestro": 1146,
      "fal": 1147,
      "pá": 1148,
      "az": 1149,
      "clo": 1150,
      "mera": 1151,
      "tienen": 1152,
      "soon": 1153,
      "veces": 1154,
      "difí": 1155,
      "idio": 1156,
      "amor": 1157,
      "best": 1158,
      "cción": 1159,
      "mple": 1160,
      "equi": 1161,
      "año": 1162,
      "podría": 1163,
      "bli": 1164,
      "comprar": 1165,
      "escuela": 1166,
      "beauti": 1167,
      "youn": 1168,
      "pens": 1169,
      "amigo": 1170,
      "oí": 1171,
      "debe": 1172,
      "jue": 1173,
      "times": 1174,
      "pie": 1175,
      "estamos": 1176,
      "til": 1177,
      "cis": 1178,
      "otro": 1179,
      "same": 1180,
      "yanni": 1181,
      "beautiful": 1182,
      "mien": 1183,
      "semana": 1184,
      "personas": 1185,
      "days": 1186,
      "compu": 1187,
      "bought": 1188,
      "sm": 1189,
      "buena": 1190,
      "pasado": 1191,
      "problem": 1192,
      "sun": 1193,
      "gave": 1194,
      "hur": 1195,
      "animal": 1196,
      "cl": 1197,
      "jun": 1198,
      "ár": 1199,
      "necesita": 1200,
      "niño": 1201,
      "favori": 1202,
      "respon": 1203,
      "cted": 1204,
      "arri": 1205,
      "comple": 1206,
      "zó": 1207,
      "deberías": 1208,
      "ocupa": 1209,
      "alguna": 1210,
      "far": 1211,
      "ze": 1212,
      "language": 1213,
      "pris": 1214,
      "dres": 1215,
      "todas": 1216,
      "cons": 1217,
      "volver": 1218,
      "rápi": 1219,
      "difícil": 1220,
      "ents": 1221,
      "ícu": 1222,
      "país": 1223,
      "pun": 1224,
      "aste": 1225,
      "own": 1226,
      "spa": 1227,
      "lugar": 1228,
      "tanto": 1229,
      "habitación": 1230,
      "sat": 1231,
      "famili": 1232,
      "aus": 1233,
      "tren": 1234,
      "clos": 1235,
      "found": 1236,
      "bl": 1237,
      "done": 1238,
      "remember": 1239,
      "teacher": 1240,
      "ales": 1241,
      "ters": 1242,
      "llegar": 1243,
      "persona": 1244,
      "fast": 1245,
      "dice": 1246,
      "san": 1247,
      "couldn": 1248,
      "kind": 1249,
      "dejar": 1250,
      "tió": 1251,
      "té": 1252,
      "ket": 1253,
      "ameri": 1254,
      "exp": 1255,
      "casi": 1256,
      "hour": 1257,
      "puerta": 1258,
      "durante": 1259,
      "profesor": 1260,
      "once": 1261,
      "grand": 1262,
      "ama": 1263,
      "bal": 1264,
      "ice": 1265,
      "feliz": 1266,
      "rar": 1267,
      "ficul": 1268,
      "univer": 1269,
      "val": 1270,
      "run": 1271,
      "cuerdo": 1272,
      "estos": 1273,
      "hacerlo": 1274,
      "light": 1275,
      "ffe": 1276,
      "everyone": 1277,
      "fon": 1278,
      "enfer": 1279,
      "saber": 1280,
      "those": 1281,
      "tain": 1282,
      "interes": 1283,
      "ugh": 1284,
      "allí": 1285,
      "ye": 1286,
      "lado": 1287,
      "mujer": 1288,
      "cuenta": 1289,
      "migo": 1290,
      "ag": 1291,
      "mé": 1292,
      "anto": 1293,
      "cannot": 1294,
      "muchas": 1295,
      "often": 1296,
      "mero": 1297,
      "cir": 1298,
      "nuestra": 1299,
      "pin": 1300,
      "enough": 1301,
      "hope": 1302,
      "peque": 1303,
      "sabía": 1304,
      "error": 1305,
      "side": 1306,
      "demos": 1307,
      "realmente": 1308,
      "quedar": 1309,
      "cold": 1310,
      "éis": 1311,
      "knows": 1312,
      "sk": 1313,
      "invi": 1314,
      "ayuda": 1315,
      "ah": 1316,
      "jas": 1317,
      "nombre": 1318,
      "looking": 1319,
      "fá": 1320,
      "habl": 1321,
      "country": 1322,
      "ball": 1323,
      "miento": 1324,
      "wrong": 1325,
      "blo": 1326,
      "train": 1327,
      "sica": 1328,
      "mucha": 1329,
      "sabes": 1330,
      "reali": 1331,
      "likes": 1332,
      "cual": 1333,
      "llama": 1334,
      "bueno": 1335,
      "sue": 1336,
      "ath": 1337,
      "ding": 1338,
      "tato": 1339,
      "student": 1340,
      "pronto": 1341,
      "bel": 1342,
      "visto": 1343,
      "vio": 1344,
      "while": 1345,
      "vino": 1346,
      "ista": 1347,
      "died": 1348,
      "condu": 1349,
      "seguro": 1350,
      "place": 1351,
      "sible": 1352,
      "emb": 1353,
      "espa": 1354,
      "such": 1355,
      "mag": 1356,
      "cuánto": 1357,
      "vamos": 1358,
      "alia": 1359,
      "hermano": 1360,
      "olvi": 1361,
      "encontrar": 1362,
      "secre": 1363,
      "resul": 1364,
      "less": 1365,
      "thank": 1366,
      "ys": 1367,
      "inten": 1368,
      "manos": 1369,
      "answer": 1370,
      "bab": 1371,
      "ming": 1372,
      "rela": 1373,
      "alone": 1374,
      "ación": 1375,
      "true": 1376,
      "histori": 1377,
      "lí": 1378,
      "seen": 1379,
      "gry": 1380,
      "books": 1381,
      "ars": 1382,
      "married": 1383,
      "city": 1384,
      "food": 1385,
      "gado": 1386,
      "gro": 1387,
      "pay": 1388,
      "parte": 1389,
      "aband": 1390,
      "met": 1391,
      "tomar": 1392,
      "fru": 1393,
      "happened": 1394,
      "young": 1395,
      "listen": 1396,
      "vive": 1397,
      "someone": 1398,
      "part": 1399,
      "hos": 1400,
      "tory": 1401,
      "comida": 1402,
      "ure": 1403,
      "estas": 1404,
      "libros": 1405,
      "swi": 1406,
      "grande": 1407,
      "gue": 1408,
      "cus": 1409,
      "cent": 1410,
      "mind": 1411,
      "leer": 1412,
      "gs": 1413,
      "rite": 1414,
      "abandon": 1415,
      "bra": 1416,
      "mú": 1417,
      "around": 1418,
      "reci": 1419,
      "wasn": 1420,
      "hotel": 1421,
      "extra": 1422,
      "writ": 1423,
      "fé": 1424,
      "shi": 1425,
      "heard": 1426,
      "ji": 1427,
      "úni": 1428,
      "dios": 1429,
      "tuvo": 1430,
      "televis": 1431,
      "cel": 1432,
      "pón": 1433,
      "tigo": 1434,
      "break": 1435,
      "eras": 1436,
      "each": 1437,
      "yet": 1438,
      "cked": 1439,
      "mit": 1440,
      "pasa": 1441,
      "difficul": 1442,
      "fort": 1443,
      "another": 1444,
      "sister": 1445,
      "nueva": 1446,
      "intent": 1447,
      "sali": 1448,
      "word": 1449,
      "land": 1450,
      "dur": 1451,
      "cli": 1452,
      "aún": 1453,
      "tant": 1454,
      "entr": 1455,
      "fui": 1456,
      "smo": 1457,
      "ín": 1458,
      "month": 1459,
      "enten": 1460,
      "hermana": 1461,
      "adi": 1462,
      "hon": 1463,
      "\".": 1464,
      "party": 1465,
      "diez": 1466,
      "swim": 1467,
      "ura": 1468,
      "prin": 1469,
      "nat": 1470,
      "bur": 1471,
      "differ": 1472,
      "dire": 1473,
      "vay": 1474,
      "tired": 1475,
      "hate": 1476,
      "usu": 1477,
      "ago": 1478,
      "lon": 1479,
      "write": 1480,
      "coffe": 1481,
      "café": 1482,
      "visit": 1483,
      "parents": 1484,
      "encan": 1485,
      "vivir": 1486,
      "donde": 1487,
      "tive": 1488,
      "truth": 1489,
      "aprender": 1490,
      "coffee": 1491,
      "austr": 1492,
      "wish": 1493,
      "few": 1494,
      "queda": 1495,
      "pt": 1496,
      "gustan": 1497,
      "mpi": 1498,
      "full": 1499,
      "gracias": 1500,
      "since": 1501,
      "looks": 1502,
      "face": 1503,
      "ley": 1504,
      "pensé": 1505,
      "woman": 1506,
      "then": 1507,
      "lled": 1508,
      "rápido": 1509,
      "ight": 1510,
      "bit": 1511,
      "comen": 1512,
      "cook": 1513,
      "conmigo": 1514,
      "hijo": 1515,
      "padres": 1516,
      "clase": 1517,
      "sido": 1518,
      "letter": 1519,
      "tatoe": 1520,
      "dia": 1521,
      "five": 1522,
      "cinco": 1523,
      "ahí": 1524,
      "sion": 1525,
      "quiera": 1526,
      "japón": 1527,
      "haciendo": 1528,
      "capa": 1529,
      "gato": 1530,
      "sos": 1531,
      "fácil": 1532,
      "age": 1533,
      "carta": 1534,
      "mó": 1535,
      "conse": 1536,
      "fiesta": 1537,
      "jó": 1538,
      "siento": 1539,
      "aren": 1540,
      "alo": 1541,
      "sufi": 1542,
      "momento": 1543,
      "wife": 1544,
      "called": 1545,
      "avi": 1546,
      "color": 1547,
      "solu": 1548,
      "opin": 1549,
      "music": 1550,
      "contigo": 1551,
      "ie": 1552,
      "perfe": 1553,
      "family": 1554,
      "tatoeba": 1555,
      "trat": 1556,
      "plane": 1557,
      "walk": 1558,
      "pasar": 1559,
      "alth": 1560,
      "atro": 1561,
      "vió": 1562,
      "respe": 1563,
      "small": 1564,
      "australia": 1565,
      "produ": 1566,
      "pueden": 1567,
      "change": 1568,
      "música": 1569,
      "joven": 1570,
      "intel": 1571,
      "cru": 1572,
      "mbres": 1573,
      "dream": 1574,
      "pl": 1575,
      "familia": 1576,
      "historia": 1577,
      "espero": 1578,
      "busy": 1579,
      "wonder": 1580,
      "adu": 1581,
      "accident": 1582,
      "hospital": 1583,
      "free": 1584,
      "raid": 1585,
      "19": 1586,
      "dente": 1587,
      "deja": 1588,
      "damente": 1589,
      "cina": 1590,
      "cios": 1591,
      "sup": 1592,
      "wear": 1593,
      "media": 1594,
      "cosa": 1595,
      "zco": 1596,
      "suficiente": 1597,
      "knew": 1598,
      "sp": 1599,
      "getting": 1600,
      "mesa": 1601,
      "anoche": 1602,
      "algunos": 1603,
      "fish": 1604,
      "art": 1605,
      "beg": 1606,
      "bajo": 1607,
      "game": 1608,
      "cou": 1609,
      "arse": 1610,
      "lives": 1611,
      "afraid": 1612,
      "ari": 1613,
      "dow": 1614,
      "llor": 1615,
      "mientras": 1616,
      "tradu": 1617,
      "rado": 1618,
      "eu": 1619,
      "propi": 1620,
      "salir": 1621,
      "tall": 1622,
      "uste": 1623,
      "cama": 1624,
      "seems": 1625,
      "clar": 1626,
      "law": 1627,
      "cido": 1628,
      "both": 1629,
      "caso": 1630,
      "agra": 1631,
      "str": 1632,
      "cuida": 1633,
      "experi": 1634,
      "coming": 1635,
      "menu": 1636,
      "bot": 1637,
      "ustedes": 1638,
      "edo": 1639,
      "entien": 1640,
      "última": 1641,
      "eno": 1642,
      "abri": 1643,
      "difficult": 1644,
      "haven": 1645,
      "visi": 1646,
      "resta": 1647,
      "ished": 1648,
      "god": 1649,
      "podemos": 1650,
      "rough": 1651,
      "lengua": 1652,
      "podía": 1653,
      "japon": 1654,
      "pelícu": 1655,
      "air": 1656,
      "primera": 1657,
      "jus": 1658,
      "expe": 1659,
      "important": 1660,
      "almost": 1661,
      "nad": 1662,
      "prefer": 1663,
      "cla": 1664,
      "quis": 1665,
      "talking": 1666,
      "vin": 1667,
      "japanese": 1668,
      "high": 1669,
      "tried": 1670,
      "ropa": 1671,
      "nobody": 1672,
      "miedo": 1673,
      "phone": 1674,
      "bió": 1675,
      "class": 1676,
      "fono": 1677,
      "eyes": 1678,
      "reading": 1679,
      "seguir": 1680,
      "col": 1681,
      "cole": 1682,
      "cando": 1683,
      "telé": 1684,
      "será": 1685,
      "acuerdo": 1686,
      "puesto": 1687,
      "trabajar": 1688,
      "police": 1689,
      "until": 1690,
      "dí": 1691,
      "mbr": 1692,
      "edad": 1693,
      "espos": 1694,
      "real": 1695,
      "yourself": 1696,
      "hubi": 1697,
      "blan": 1698,
      "takes": 1699,
      "horas": 1700,
      "necesit": 1701,
      "flor": 1702,
      "ojos": 1703,
      "pain": 1704,
      "vaca": 1705,
      "cí": 1706,
      "debes": 1707,
      "camp": 1708,
      "ches": 1709,
      "clu": 1710,
      "pregunta": 1711,
      "mean": 1712,
      "viene": 1713,
      "cr": 1714,
      "cta": 1715,
      "toge": 1716,
      "tico": 1717,
      "cierto": 1718,
      "together": 1719,
      "lin": 1720,
      "looked": 1721,
      "policía": 1722,
      "tica": 1723,
      "pictu": 1724,
      "human": 1725,
      "question": 1726,
      "teléfono": 1727,
      "ara": 1728,
      "cabe": 1729,
      "fica": 1730,
      "difer": 1731,
      "near": 1732,
      "trabaj": 1733,
      "dro": 1734,
      "through": 1735,
      "usa": 1736,
      "ps": 1737,
      "ward": 1738,
      "comes": 1739,
      "else": 1740,
      "easy": 1741,
      "llos": 1742,
      "peli": 1743,
      "arme": 1744,
      "hair": 1745,
      "exac": 1746,
      "anyone": 1747,
      "early": 1748,
      "says": 1749,
      "later": 1750,
      "compañ": 1751,
      "jugar": 1752,
      "spo": 1753,
      "exa": 1754,
      "problemas": 1755,
      "pelo": 1756,
      "venir": 1757,
      "mine": 1758,
      "window": 1759,
      "arte": 1760,
      "importante": 1761,
      "ocupado": 1762,
      "dico": 1763,
      "started": 1764,
      "ness": 1765,
      "pis": 1766,
      "ason": 1767,
      "puesta": 1768,
      "dinner": 1769,
      "flow": 1770,
      "ste": 1771,
      "might": 1772,
      "mate": 1773,
      "cara": 1774,
      "himself": 1775,
      "bles": 1776,
      "suc": 1777,
      "fire": 1778,
      "anti": 1779,
      "lev": 1780,
      "hijos": 1781,
      "cansa": 1782,
      "ation": 1783,
      "glas": 1784,
      "thir": 1785,
      "conta": 1786,
      "llas": 1787,
      "quien": 1788,
      "puso": 1789,
      "tivo": 1790,
      "set": 1791,
      "ocur": 1792,
      "cá": 1793,
      "ena": 1794,
      "abu": 1795,
      "acerca": 1796,
      "cap": 1797,
      "nei": 1798,
      "vista": 1799,
      "palabras": 1800,
      "palabra": 1801,
      "ús": 1802,
      "eran": 1803,
      "matter": 1804,
      "yó": 1805,
      "espe": 1806,
      "head": 1807,
      "sorry": 1808,
      "ated": 1809,
      "order": 1810,
      "menudo": 1811,
      "imag": 1812,
      "expli": 1813,
      "cualquier": 1814,
      "ér": 1815,
      "enti": 1816,
      "estaban": 1817,
      "myself": 1818,
      "pasó": 1819,
      "playing": 1820,
      "tok": 1821,
      "salu": 1822,
      "bastante": 1823,
      "smi": 1824,
      "ellas": 1825,
      "ings": 1826,
      "murió": 1827,
      "dejó": 1828,
      "gal": 1829,
      "amos": 1830,
      "tipo": 1831,
      "mira": 1832,
      "words": 1833,
      "eating": 1834,
      "death": 1835,
      "super": 1836,
      "fuerte": 1837,
      "pret": 1838,
      "rano": 1839,
      "llevar": 1840,
      "impos": 1841,
      "ned": 1842,
      "shor": 1843,
      "depen": 1844,
      "alto": 1845,
      "joy": 1846,
      "mmer": 1847,
      "offi": 1848,
      "kill": 1849,
      "dere": 1850,
      "tv": 1851,
      "cuar": 1852,
      "hombres": 1853,
      "turned": 1854,
      "camino": 1855,
      "popu": 1856,
      "estudiar": 1857,
      "somos": 1858,
      "white": 1859,
      "escribir": 1860,
      "danger": 1861,
      "cry": 1862,
      "llev": 1863,
      "hours": 1864,
      "30": 1865,
      "bon": 1866,
      "erno": 1867,
      "having": 1868,
      "dado": 1869,
      "china": 1870,
      "viendo": 1871,
      "stre": 1872,
      "present": 1873,
      "nú": 1874,
      "road": 1875,
      "confi": 1876,
      "ween": 1877,
      "situ": 1878,
      "sola": 1879,
      "key": 1880,
      "chica": 1881,
      "jug": 1882,
      "importa": 1883,
      "start": 1884,
      "cine": 1885,
      "estación": 1886,
      "zed": 1887,
      "contin": 1888,
      "dormir": 1889,
      "...": 1890,
      "consider": 1891,
      "gri": 1892,
      "pra": 1893,
      "presid": 1894,
      "gol": 1895,
      "terri": 1896,
      "interest": 1897,
      "deli": 1898,
      "decis": 1899,
      "jan": 1900,
      "enseñ": 1901,
      "dese": 1902,
      "wouldn": 1903,
      "station": 1904,
      "temprano": 1905,
      "forget": 1906,
      "nice": 1907,
      "pró": 1908,
      "working": 1909,
      "razón": 1910,
      "favorite": 1911,
      "tad": 1912,
      "dicho": 1913,
      "actu": 1914,
      "crees": 1915,
      "llamar": 1916,
      "accidente": 1917,
      "conver": 1918,
      "lares": 1919,
      "fel": 1920,
      "ot": 1921,
      "arro": 1922,
      "born": 1923,
      "fol": 1924,
      "mr": 1925,
      "snow": 1926,
      "usar": 1927,
      "zado": 1928,
      "orden": 1929,
      "atra": 1930,
      "hici": 1931,
      "lunch": 1932,
      "flo": 1933,
      "town": 1934,
      "muerte": 1935,
      "ningún": 1936,
      "signi": 1937,
      "hice": 1938,
      "american": 1939,
      "dou": 1940,
      "hal": 1941,
      "algunas": 1942,
      "aun": 1943,
      "cali": 1944,
      "wel": 1945,
      "enton": 1946,
      "earth": 1947,
      "informa": 1948,
      "parti": 1949,
      "señor": 1950,
      "band": 1951,
      "test": 1952,
      "um": 1953,
      "fueron": 1954,
      "six": 1955,
      "sick": 1956,
      "simple": 1957,
      "entonces": 1958,
      "four": 1959,
      "ught": 1960,
      "adas": 1961,
      "tendr": 1962,
      "dress": 1963,
      "dra": 1964,
      "story": 1965,
      "noti": 1966,
      "diver": 1967,
      "dades": 1968,
      "lleva": 1969,
      "between": 1970,
      "fall": 1971,
      "ases": 1972,
      "dije": 1973,
      "wea": 1974,
      "cess": 1975,
      "princi": 1976,
      "igu": 1977,
      "makes": 1978,
      "sigui": 1979,
      "aremos": 1980,
      "sub": 1981,
      "black": 1982,
      "hot": 1983,
      "sentence": 1984,
      "gener": 1985,
      "algún": 1986,
      "reuni": 1987,
      "beb": 1988,
      "rich": 1989,
      "nadar": 1990,
      "ire": 1991,
      "goes": 1992,
      "cuen": 1993,
      "estados": 1994,
      "guerra": 1995,
      "conozco": 1996,
      "aré": 1997,
      "hacia": 1998,
      "canadi": 1999,
      "against": 2000,
      "ating": 2001,
      "cover": 2002,
      "living": 2003,
      "anymore": 2004,
      "meeting": 2005,
      "próxi": 2006,
      "spen": 2007,
      "ast": 2008,
      "unos": 2009,
      "log": 2010,
      "película": 2011,
      "gent": 2012,
      "lie": 2013,
      "vimos": 2014,
      "students": 2015,
      "flu": 2016,
      "kid": 2017,
      "dij": 2018,
      "abo": 2019,
      "tonight": 2020,
      "futu": 2021,
      "different": 2022,
      "pier": 2023,
      "extran": 2024,
      "frío": 2025,
      "number": 2026,
      "computer": 2027,
      "pretty": 2028,
      "fra": 2029,
      "swe": 2030,
      "piano": 2031,
      "levant": 2032,
      "angry": 2033,
      "deb": 2034,
      "condi": 2035,
      "pudo": 2036,
      "unidos": 2037,
      "appe": 2038,
      "equivo": 2039,
      "tador": 2040,
      "vari": 2041,
      "punto": 2042,
      "cabeza": 2043,
      "atten": 2044,
      "sive": 2045,
      "acos": 2046,
      "zapa": 2047,
      "rest": 2048,
      "ined": 2049,
      "bici": 2050,
      "apo": 2051,
      "sound": 2052,
      "cei": 2053,
      "pagar": 2054,
      "ría": 2055,
      "sou": 2056,
      "tely": 2057,
      "im": 2058,
      "anas": 2059,
      "quite": 2060,
      "guitar": 2061,
      "clear": 2062,
      "sha": 2063,
      "cidad": 2064,
      "fuer": 2065,
      "clean": 2066,
      "heart": 2067,
      "lunes": 2068,
      "único": 2069,
      "primer": 2070,
      "hablando": 2071,
      "street": 2072,
      "health": 2073,
      "lidad": 2074,
      "box": 2075,
      "misma": 2076,
      "everybody": 2077,
      "noon": 2078,
      "recor": 2079,
      "hermos": 2080,
      "prepar": 2081,
      "calle": 2082,
      "cts": 2083,
      "manera": 2084,
      "juego": 2085,
      "acep": 2086,
      "ties": 2087,
      "bring": 2088,
      "minutos": 2089,
      "número": 2090,
      "follow": 2091,
      "exam": 2092,
      "others": 2093,
      "natur": 2094,
      "ef": 2095,
      "pped": 2096,
      "vice": 2097,
      "guas": 2098,
      "hurt": 2099,
      "esposa": 2100,
      "río": 2101,
      "minutes": 2102,
      "relo": 2103,
      "also": 2104,
      "cuatro": 2105,
      "bido": 2106,
      "prob": 2107,
      "stran": 2108,
      "hold": 2109,
      "sería": 2110,
      "memor": 2111,
      "hemos": 2112,
      "trou": 2113,
      "park": 2114,
      "decided": 2115,
      "needs": 2116,
      "tura": 2117,
      "bui": 2118,
      "trying": 2119,
      "shoes": 2120,
      "otras": 2121,
      "conf": 2122,
      "monday": 2123,
      "bús": 2124,
      "dolor": 2125,
      "summer": 2126,
      "pidió": 2127,
      "case": 2128,
      "birth": 2129,
      "reloj": 2130,
      "ko": 2131,
      "lá": 2132,
      "mand": 2133,
      "oud": 2134,
      "aten": 2135,
      "televisión": 2136,
      "doll": 2137,
      "edu": 2138,
      "cut": 2139,
      "elec": 2140,
      "quisi": 2141,
      "clock": 2142,
      "build": 2143,
      "tierra": 2144,
      "promis": 2145,
      "felt": 2146,
      "gone": 2147,
      "kis": 2148,
      "veo": 2149,
      "daugh": 2150,
      "zapatos": 2151,
      "fell": 2152,
      "reason": 2153,
      "point": 2154,
      "ccion": 2155,
      "jero": 2156,
      "ping": 2157,
      "ello": 2158,
      "haga": 2159,
      "perder": 2160,
      "waiting": 2161,
      "usually": 2162,
      "tuve": 2163,
      "ched": 2164,
      "poner": 2165,
      "begin": 2166,
      "office": 2167,
      "ita": 2168,
      "chos": 2169,
      "wash": 2170,
      "area": 2171,
      "broke": 2172,
      "pedir": 2173,
      "poe": 2174,
      "ninguna": 2175,
      "tree": 2176,
      "loves": 2177,
      "creer": 2178,
      "final": 2179,
      "ign": 2180,
      "strong": 2181,
      "idioma": 2182,
      "gio": 2183,
      "podrías": 2184,
      "baby": 2185,
      "10": 2186,
      "fing": 2187,
      "dead": 2188,
      "transla": 2189,
      "20": 2190,
      "verano": 2191,
      "sami": 2192,
      "travel": 2193,
      "finished": 2194,
      "milk": 2195,
      "enter": 2196,
      "arrived": 2197,
      "sueño": 2198,
      "whe": 2199,
      "river": 2200,
      "forgot": 2201,
      "sometimes": 2202,
      "ignor": 2203,
      "drive": 2204,
      "close": 2205,
      "entender": 2206,
      "radio": 2207,
      "languages": 2208,
      "intelig": 2209,
      "shop": 2210,
      "ventana": 2211,
      "encanta": 2212,
      "fla": 2213,
      "debo": 2214,
      "viol": 2215,
      "bill": 2216,
      "expla": 2217,
      "juntos": 2218,
      "ling": 2219,
      "tienda": 2220,
      "enjoy": 2221,
      "sever": 2222,
      "cious": 2223,
      "prote": 2224,
      "normal": 2225,
      "posible": 2226,
      "short": 2227,
      "reli": 2228,
      "chin": 2229,
      "capital": 2230,
      "llegó": 2231,
      "cleta": 2232,
      "amar": 2233,
      "fre": 2234,
      "span": 2235,
      "fai": 2236,
      "luck": 2237,
      "movie": 2238,
      "poder": 2239,
      "manz": 2240,
      "cansado": 2241,
      "encuen": 2242,
      "indi": 2243,
      "making": 2244,
      "bai": 2245,
      "cept": 2246,
      "cra": 2247,
      "edi": 2248,
      "leche": 2249,
      "seis": 2250,
      "vivo": 2251,
      "estuvo": 2252,
      "aver": 2253,
      "become": 2254,
      "descu": 2255,
      "compró": 2256,
      "sas": 2257,
      "lejos": 2258,
      "eremos": 2259,
      "tenido": 2260,
      "jack": 2261,
      "trabaja": 2262,
      "esperar": 2263,
      "cloth": 2264,
      "cuidado": 2265,
      "constru": 2266,
      "interesting": 2267,
      "desper": 2268,
      "shouldn": 2269,
      "conoce": 2270,
      "realidad": 2271,
      "ences": 2272,
      "cie": 2273,
      "mane": 2274,
      "company": 2275,
      "foto": 2276,
      "esperanto": 2277,
      "wed": 2278,
      "quit": 2279,
      "coraz": 2280,
      "cuarto": 2281,
      "zas": 2282,
      "tou": 2283,
      "conven": 2284,
      "tera": 2285,
      "preocu": 2286,
      "homework": 2287,
      "estudiantes": 2288,
      "rob": 2289,
      "piz": 2290,
      "fumar": 2291,
      "pass": 2292,
      "dark": 2293,
      "falta": 2294,
      "breakfast": 2295,
      "dge": 2296,
      "ill": 2297,
      "jes": 2298,
      "mol": 2299,
      "mistake": 2300,
      "women": 2301,
      "picture": 2302,
      "weather": 2303,
      "tea": 2304,
      "rope": 2305,
      "luz": 2306,
      "chico": 2307,
      "pienso": 2308,
      "ies": 2309,
      "mán": 2310,
      "ciencia": 2311,
      "pensar": 2312,
      "rus": 2313,
      "ense": 2314,
      "ará": 2315,
      "lived": 2316,
      "abi": 2317,
      "preguntó": 2318,
      "hubiera": 2319,
      "dera": 2320,
      "cien": 2321,
      "libre": 2322,
      "bicicleta": 2323,
      "eg": 2324,
      "taxi": 2325,
      "ofic": 2326,
      "expen": 2327,
      "autobús": 2328,
      "oír": 2329,
      "oficina": 2330,
      "jeres": 2331,
      "began": 2332,
      "mujeres": 2333,
      "ants": 2334,
      "cuántos": 2335,
      "escuch": 2336,
      "viejo": 2337,
      "hands": 2338,
      "ech": 2339,
      "caja": 2340,
      "perdido": 2341,
      "large": 2342,
      "dedor": 2343,
      "killed": 2344,
      "trouble": 2345,
      "daughter": 2346,
      "chr": 2347,
      "muer": 2348,
      "pid": 2349,
      "compar": 2350,
      "mío": 2351,
      "?\"": 2352,
      "hus": 2353,
      "unas": 2354,
      "move": 2355,
      "médico": 2356,
      "smoking": 2357,
      "spanish": 2358,
      "osa": 2359,
      "dida": 2360,
      "cena": 2361,
      "afternoon": 2362,
      "solía": 2363,
      "cycle": 2364,
      "capaz": 2365,
      "examen": 2366,
      "ñas": 2367,
      "volu": 2368,
      "mel": 2369,
      "pó": 2370,
      "dieron": 2371,
      "ater": 2372,
      "bamos": 2373,
      "niña": 2374,
      "store": 2375,
      "speaks": 2376,
      "during": 2377,
      "fres": 2378,
      "enamor": 2379,
      "quick": 2380,
      "works": 2381,
      "sino": 2382,
      "buscando": 2383,
      "longer": 2384,
      "funcion": 2385,
      "sorpren": 2386,
      "fle": 2387,
      "hija": 2388,
      "studying": 2389,
      "america": 2390,
      "ious": 2391,
      "tiva": 2392,
      "segun": 2393,
      "diendo": 2394,
      "trust": 2395,
      "absolu": 2396,
      "bado": 2397,
      "pur": 2398,
      "emplo": 2399,
      "pose": 2400,
      "evi": 2401,
      "tomó": 2402,
      "llu": 2403,
      "corazón": 2404,
      "idad": 2405,
      "mous": 2406,
      "iness": 2407,
      "prefi": 2408,
      "duro": 2409,
      "chance": 2410,
      "erat": 2411,
      "incre": 2412,
      "novel": 2413,
      "dame": 2414,
      "cake": 2415,
      "viera": 2416,
      "colegio": 2417,
      "gor": 2418,
      "vide": 2419,
      "pequeño": 2420,
      "christ": 2421,
      "hit": 2422,
      "nis": 2423,
      "yor": 2424,
      "anci": 2425,
      "reco": 2426,
      "exis": 2427,
      "possible": 2428,
      "interesante": 2429,
      "agree": 2430,
      "fil": 2431,
      "nuestros": 2432,
      "hue": 2433,
      "song": 2434,
      "whole": 2435,
      "dormi": 2436,
      "reunión": 2437,
      "sof": 2438,
      "sell": 2439,
      "esté": 2440,
      "canción": 2441,
      "york": 2442,
      "incl": 2443,
      "lad": 2444,
      "ries": 2445,
      "rico": 2446,
      "quisiera": 2447,
      "estro": 2448,
      "liber": 2449,
      "viste": 2450,
      "visitar": 2451,
      "apare": 2452,
      "dden": 2453,
      "oscu": 2454,
      "ately": 2455,
      "moment": 2456,
      "publi": 2457,
      "vendr": 2458,
      "unidad": 2459,
      "saying": 2460,
      "quieren": 2461,
      "popular": 2462,
      "cris": 2463,
      "oc": 2464,
      "rica": 2465,
      "finish": 2466,
      "app": 2467,
      "asi": 2468,
      "cks": 2469,
      "primero": 2470,
      "count": 2471,
      "pájar": 2472,
      "avión": 2473,
      "terrible": 2474,
      "agu": 2475,
      "éxi": 2476,
      "laugh": 2477,
      "cación": 2478,
      "sil": 2479,
      "movi": 2480,
      "poor": 2481,
      "became": 2482,
      "árbol": 2483,
      "jane": 2484,
      "jal": 2485,
      "ny": 2486,
      "ví": 2487,
      "esca": 2488,
      "along": 2489,
      "rote": 2490,
      "obje": 2491,
      "torio": 2492,
      "enfermo": 2493,
      "japonés": 2494,
      "clothes": 2495,
      "medio": 2496,
      "respuesta": 2497,
      "compré": 2498,
      "spend": 2499,
      "iz": 2500,
      "choco": 2501,
      "flores": 2502,
      "expres": 2503,
      "speaking": 2504,
      "wrote": 2505,
      "haz": 2506,
      "colle": 2507,
      "rather": 2508,
      "permi": 2509,
      "german": 2510,
      "salió": 2511,
      "neigh": 2512,
      "hind": 2513,
      "pus": 2514,
      "ut": 2515,
      "envi": 2516,
      "tados": 2517,
      "quedó": 2518,
      "secon": 2519,
      "fron": 2520,
      "surpris": 2521,
      "vaya": 2522,
      "bebé": 2523,
      "ici": 2524,
      "ible": 2525,
      "ug": 2526,
      "ído": 2527,
      "enga": 2528,
      "tennis": 2529,
      "carne": 2530,
      "frase": 2531,
      "satis": 2532,
      "ciste": 2533,
      "moun": 2534,
      "tio": 2535,
      "compla": 2536,
      "eph": 2537,
      "culpa": 2538,
      "ross": 2539,
      "oído": 2540,
      "apar": 2541,
      "pat": 2542,
      "inv": 2543,
      "taking": 2544,
      "concer": 2545,
      "cumple": 2546,
      "known": 2547,
      "preguntas": 2548,
      "older": 2549,
      "flowers": 2550,
      "odio": 2551,
      "demás": 2552,
      "cocin": 2553,
      "cuanto": 2554,
      "news": 2555,
      "regres": 2556,
      "necesitas": 2557,
      "lay": 2558,
      "diction": 2559,
      "calor": 2560,
      "stupid": 2561,
      "fly": 2562,
      "doming": 2563,
      "perdió": 2564,
      "nego": 2565,
      "thinking": 2566,
      "peligr": 2567,
      "expensive": 2568,
      "éxito": 2569,
      "corr": 2570,
      "encontré": 2571,
      "itch": 2572,
      "jamás": 2573,
      "business": 2574,
      "ete": 2575,
      "eded": 2576,
      "vidad": 2577,
      "foot": 2578,
      "watching": 2579,
      "entiendo": 2580,
      "christmas": 2581,
      "chocolate": 2582,
      "send": 2583,
      "mamá": 2584,
      "antas": 2585,
      "pudi": 2586,
      "emple": 2587,
      "pueda": 2588,
      "selves": 2589,
      "esperando": 2590,
      "half": 2591,
      "ñol": 2592,
      "esp": 2593,
      "dólares": 2594,
      "terminar": 2595,
      "limpi": 2596,
      "gué": 2597,
      "fic": 2598,
      "appear": 2599,
      "oport": 2600,
      "ticas": 2601,
      "pleas": 2602,
      "ganas": 2603,
      "español": 2604,
      "least": 2605,
      "toma": 2606,
      "hea": 2607,
      "riendo": 2608,
      "paper": 2609,
      "pase": 2610,
      "mientos": 2611,
      "opinion": 2612,
      "apro": 2613,
      "oper": 2614,
      "estr": 2615,
      "caught": 2616,
      "polí": 2617,
      "guar": 2618,
      "cree": 2619,
      "hambre": 2620,
      "computador": 2621,
      "ship": 2622,
      "aunque": 2623,
      "birthday": 2624,
      "seven": 2625,
      "cocina": 2626,
      "dable": 2627,
      "worry": 2628,
      "volvió": 2629,
      "entrar": 2630,
      "success": 2631,
      "mía": 2632,
      "advice": 2633,
      "tenis": 2634,
      "careful": 2635,
      "wearing": 2636,
      "sad": 2637,
      "slow": 2638,
      "top": 2639,
      "behind": 2640,
      "suerte": 2641,
      "bibli": 2642,
      "tional": 2643,
      "conoci": 2644,
      "restaur": 2645,
      "bat": 2646,
      "wine": 2647,
      "anza": 2648,
      "cielo": 2649,
      "date": 2650,
      "mid": 2651,
      "lose": 2652,
      "bath": 2653,
      "pueblo": 2654,
      "impres": 2655,
      "viaje": 2656,
      "cambiar": 2657,
      "hungry": 2658,
      "vacaciones": 2659,
      "ev": 2660,
      "tando": 2661,
      "despi": 2662,
      "lista": 2663,
      "cámar": 2664,
      "touch": 2665,
      "cket": 2666,
      "iba": 2667,
      "ojal": 2668,
      "sy": 2669,
      "arm": 2670,
      "sul": 2671,
      "allá": 2672,
      "miss": 2673,
      "haya": 2674,
      "sentido": 2675,
      "regalo": 2676,
      "learning": 2677,
      "empezó": 2678,
      "debemos": 2679,
      "ctos": 2680,
      "tí": 2681,
      "tón": 2682,
      "cabal": 2683,
      "verte": 2684,
      "pude": 2685,
      "trata": 2686,
      "monta": 2687,
      "dentro": 2688,
      "ideas": 2689,
      "husband": 2690,
      "ojalá": 2691,
      "ace": 2692,
      "parecía": 2693,
      "sigue": 2694,
      "thanks": 2695,
      "base": 2696,
      "team": 2697,
      "mur": 2698,
      "gamos": 2699,
      "largo": 2700,
      "gió": 2701,
      "seem": 2702,
      "dogs": 2703,
      "questions": 2704,
      "animales": 2705,
      "dangerous": 2706,
      "jard": 2707,
      "tly": 2708,
      "estra": 2709,
      "abur": 2710,
      "net": 2711,
      "listo": 2712,
      "000": 2713,
      "animals": 2714,
      "fortuna": 2715,
      "salud": 2716,
      "ito": 2717,
      "teen": 2718,
      "diccion": 2719,
      "logi": 2720,
      "beber": 2721,
      "jado": 2722,
      "vuelta": 2723,
      "conducir": 2724,
      "cumpleaños": 2725,
      "amente": 2726,
      "allow": 2727,
      "manas": 2728,
      "nieve": 2729,
      "serious": 2730,
      "europe": 2731,
      "probable": 2732,
      "aj": 2733,
      "ata": 2734,
      "tocar": 2735,
      "novia": 2736,
      "certain": 2737,
      "piensa": 2738,
      "empezar": 2739,
      "ei": 2740,
      "stra": 2741,
      "esos": 2742,
      "arreg": 2743,
      "yours": 2744,
      "perfect": 2745,
      "building": 2746,
      "ff": 2747,
      "ging": 2748,
      "ote": 2749,
      "esti": 2750,
      "taken": 2751,
      "lion": 2752,
      "perros": 2753,
      "malo": 2754,
      "bank": 2755,
      "adores": 2756,
      "stopped": 2757,
      "justo": 2758,
      "amb": 2759,
      "gon": 2760,
      "scar": 2761,
      "eros": 2762,
      "leg": 2763,
      "tada": 2764,
      "itali": 2765,
      "parque": 2766,
      "famous": 2767,
      "discus": 2768,
      "second": 2769,
      "pú": 2770,
      "sci": 2771,
      "meat": 2772,
      "kept": 2773,
      "muse": 2774,
      "fight": 2775,
      "ments": 2776,
      "cuántas": 2777,
      "blue": 2778,
      "whether": 2779,
      "ró": 2780,
      "escal": 2781,
      "alre": 2782,
      "ramos": 2783,
      "famos": 2784,
      "garden": 2785,
      "conocer": 2786,
      "escuchar": 2787,
      "changed": 2788,
      "significa": 2789,
      "acostu": 2790,
      "alrededor": 2791,
      "ily": 2792,
      "ka": 2793,
      "asun": 2794,
      "lies": 2795,
      "morir": 2796,
      "llave": 2797,
      "sense": 2798,
      "estudiante": 2799,
      "surprised": 2800,
      "orgu": 2801,
      "contar": 2802,
      "alidad": 2803,
      "helped": 2804,
      "ruido": 2805,
      "mayoría": 2806,
      "ual": 2807,
      "mostr": 2808,
      "necesitamos": 2809,
      "oh": 2810,
      "tw": 2811,
      "tarea": 2812,
      "recuer": 2813,
      "dicen": 2814,
      "deser": 2815,
      "stood": 2816,
      "sky": 2817,
      "doub": 2818,
      "dom": 2819,
      "mail": 2820,
      "profun": 2821,
      "whose": 2822,
      "cour": 2823,
      "orig": 2824,
      "siquiera": 2825,
      "admi": 2826,
      "tud": 2827,
      "descri": 2828,
      "shall": 2829,
      "vesti": 2830,
      "necess": 2831,
      "velo": 2832,
      "esas": 2833,
      "hasn": 2834,
      "catch": 2835,
      "deberíamos": 2836,
      "spent": 2837,
      "cámara": 2838,
      "nar": 2839,
      "ates": 2840,
      "ject": 2841,
      "loved": 2842,
      "grandes": 2843,
      "glasses": 2844,
      "als": 2845,
      "bicycle": 2846,
      "maybe": 2847,
      "errores": 2848,
      "opinión": 2849,
      "continu": 2850,
      "tbol": 2851,
      "refu": 2852,
      "unk": 2853,
      "bag": 2854,
      "board": 2855,
      "gets": 2856,
      "united": 2857,
      "banco": 2858,
      "shir": 2859,
      "dictionary": 2860,
      "aw": 2861,
      "glad": 2862,
      "pho": 2863,
      "wall": 2864,
      "queremos": 2865,
      "siete": 2866,
      "hiciste": 2867,
      "ficio": 2868,
      "venido": 2869,
      "sentences": 2870,
      "girlfriend": 2871,
      "equipo": 2872,
      "covered": 2873,
      "oportunidad": 2874,
      "diccionario": 2875,
      "aire": 2876,
      "vale": 2877,
      "esco": 2878,
      "recei": 2879,
      "dul": 2880,
      "fully": 2881,
      "consejo": 2882,
      "lluvia": 2883,
      "ben": 2884,
      "dred": 2885,
      "isla": 2886,
      "mistakes": 2887,
      "fine": 2888,
      "pregunto": 2889,
      "déja": 2890,
      "hundred": 2891,
      "hurry": 2892,
      "extranjero": 2893,
      "encontra": 2894,
      "organ": 2895,
      "alcan": 2896,
      "hagas": 2897,
      "thinks": 2898,
      "aquel": 2899,
      "written": 2900,
      "jardín": 2901,
      "yen": 2902,
      "sex": 2903,
      "muerto": 2904,
      "mentos": 2905,
      "progra": 2906,
      "vestido": 2907,
      "expect": 2908,
      "neighbor": 2909,
      "fú": 2910,
      "ír": 2911,
      "seat": 2912,
      "triste": 2913,
      "sombr": 2914,
      "baño": 2915,
      "diste": 2916,
      "frente": 2917,
      "floor": 2918,
      "dollars": 2919,
      "públi": 2920,
      "means": 2921,
      "camera": 2922,
      "vieron": 2923,
      "hip": 2924,
      "fico": 2925,
      "hablo": 2926,
      "foreign": 2927,
      "pequeña": 2928,
      "writing": 2929,
      "thirty": 2930,
      "return": 2931,
      "conten": 2932,
      "bob": 2933,
      "papel": 2934,
      "prome": 2935,
      "parado": 2936,
      "preten": 2937,
      "mala": 2938,
      "brought": 2939,
      "problems": 2940,
      "played": 2941,
      "llover": 2942,
      "extraño": 2943,
      "quickly": 2944,
      "apa": 2945,
      "ior": 2946,
      "total": 2947,
      "inta": 2948,
      "rez": 2949,
      "derecho": 2950,
      "craz": 2951,
      "emo": 2952,
      "tío": 2953,
      "tics": 2954,
      "sunday": 2955,
      "secret": 2956,
      "several": 2957,
      "chinese": 2958,
      "def": 2959,
      "camis": 2960,
      "cuesta": 2961,
      "sidad": 2962,
      "porte": 2963,
      "cream": 2964,
      "states": 2965,
      "blood": 2966,
      "atención": 2967,
      "vy": 2968,
      "uego": 2969,
      "cantar": 2970,
      "wai": 2971,
      "último": 2972,
      "compañía": 2973,
      "strange": 2974,
      "explain": 2975,
      "gel": 2976,
      "grow": 2977,
      "úpi": 2978,
      "estúpi": 2979,
      "outside": 2980,
      "trip": 2981,
      "eaten": 2982,
      "smell": 2983,
      "matemá": 2984,
      "déjame": 2985,
      "fútbol": 2986,
      "conseguir": 2987,
      "cup": 2988,
      "hol": 2989,
      "papá": 2990,
      "fair": 2991,
      "navidad": 2992,
      "finally": 2993,
      "blanco": 2994,
      "decision": 2995,
      "restaurant": 2996,
      "vac": 2997,
      "inmedia": 2998,
      "mill": 2999,
      "espera": 3000,
      "alemán": 3001,
      "secreto": 3002,
      "fortun": 3003,
      "acostumb": 3004,
      "fan": 3005,
      "spi": 3006,
      "recuerdo": 3007,
      "herself": 3008,
      "prue": 3009,
      "shut": 3010,
      "haré": 3011,
      "curso": 3012,
      "honest": 3013,
      "religi": 3014,
      "urante": 3015,
      "arlo": 3016,
      "gover": 3017,
      "resol": 3018,
      "ctive": 3019,
      "restaurante": 3020,
      "tokyo": 3021,
      "igual": 3022,
      "crazy": 3023,
      "hes": 3024,
      "ks": 3025,
      "though": 3026,
      "inas": 3027,
      "tient": 3028,
      "liked": 3029,
      "rate": 3030,
      "fuego": 3031,
      "meses": 3032,
      "control": 3033,
      "cats": 3034,
      "closed": 3035,
      "interested": 3036,
      "incluso": 3037,
      "rompi": 3038,
      "beer": 3039,
      "villa": 3040,
      "worth": 3041,
      "wood": 3042,
      "bibliote": 3043,
      "apen": 3044,
      "nas": 3045,
      "alla": 3046,
      "noise": 3047,
      "mad": 3048,
      "sudden": 3049,
      "pobre": 3050,
      "cerve": 3051,
      "sale": 3052,
      "instru": 3053,
      "club": 3054,
      "cere": 3055,
      "arti": 3056,
      "deep": 3057,
      "dientes": 3058,
      "estabas": 3059,
      "pul": 3060,
      "fix": 3061,
      "excep": 3062,
      "extre": 3063,
      "discul": 3064,
      "piensas": 3065,
      "jim": 3066,
      "inteligente": 3067,
      "pir": 3068,
      "ance": 3069,
      "llue": 3070,
      "probab": 3071,
      "pena": 3072,
      "obli": 3073,
      "sign": 3074,
      "drinking": 3075,
      "tokio": 3076,
      "cerveza": 3077,
      "gree": 3078,
      "uti": 3079,
      "mic": 3080,
      "form": 3081,
      "quiz": 3082,
      "obser": 3083,
      "terminado": 3084,
      "idiomas": 3085,
      "eth": 3086,
      "ian": 3087,
      "smar": 3088,
      "ists": 3089,
      "offer": 3090,
      "mpli": 3091,
      "suelo": 3092,
      "gatos": 3093,
      "proud": 3094,
      "anybody": 3095,
      "glass": 3096,
      "principi": 3097,
      "gres": 3098,
      "boca": 3099,
      "cking": 3100,
      "bras": 3101,
      "buenos": 3102,
      "library": 3103,
      "llorar": 3104,
      "sombrero": 3105,
      "braz": 3106,
      "gest": 3107,
      "oro": 3108,
      "rema": 3109,
      "beach": 3110,
      "ridad": 3111,
      "social": 3112,
      "menta": 3113,
      "menti": 3114,
      "pied": 3115,
      "habría": 3116,
      "fear": 3117,
      "escucha": 3118,
      "preguntar": 3119,
      "dance": 3120,
      "correct": 3121,
      "front": 3122,
      "biblioteca": 3123,
      "fit": 3124,
      "rey": 3125,
      "uncle": 3126,
      "cation": 3127,
      "aban": 3128,
      "parar": 3129,
      "quieras": 3130,
      "months": 3131,
      "apenas": 3132,
      "paris": 3133,
      "paid": 3134,
      "habit": 3135,
      "apple": 3136,
      "única": 3137,
      "edificio": 3138,
      "public": 3139,
      "orgullos": 3140,
      "amo": 3141,
      "ej": 3142,
      "moder": 3143,
      "fied": 3144,
      "ganar": 3145,
      "treinta": 3146,
      "leyendo": 3147,
      "próximo": 3148,
      "arma": 3149,
      "seas": 3150,
      "figu": 3151,
      "disfru": 3152,
      "girls": 3153,
      "completamente": 3154,
      "completely": 3155,
      "embar": 3156,
      "imposible": 3157,
      "escon": 3158,
      "ener": 3159,
      "alco": 3160,
      "tex": 3161,
      "loco": 3162,
      "suit": 3163,
      "peor": 3164,
      "safe": 3165,
      "chair": 3166,
      "bird": 3167,
      "stayed": 3168,
      "enci": 3169,
      "alta": 3170,
      "atta": 3171,
      "cont": 3172,
      "sitio": 3173,
      "viven": 3174,
      "distan": 3175,
      "cost": 3176,
      "bread": 3177,
      "saben": 3178,
      "encontró": 3179,
      "acabo": 3180,
      "ajed": 3181,
      "shirt": 3182,
      "cated": 3183,
      "óni": 3184,
      "weight": 3185,
      "voz": 3186,
      "minis": 3187,
      "playa": 3188,
      "belie": 3189,
      "aburri": 3190,
      "cele": 3191,
      "luego": 3192,
      "almor": 3193,
      "ladr": 3194,
      "vege": 3195,
      "chess": 3196,
      "tiendo": 3197,
      "given": 3198,
      "wake": 3199,
      "smoke": 3200,
      "future": 3201,
      "mere": 3202,
      "quina": 3203,
      "cayó": 3204,
      "perdí": 3205,
      "negro": 3206,
      "needed": 3207,
      "power": 3208,
      "past": 3209,
      "haría": 3210,
      "running": 3211,
      "dirección": 3212,
      "impossible": 3213,
      "cciones": 3214,
      "winter": 3215,
      "inse": 3216,
      "istas": 3217,
      "llamó": 3218,
      "feeling": 3219,
      "learned": 3220,
      "swimming": 3221,
      "expected": 3222,
      "equivocado": 3223,
      "attention": 3224,
      "line": 3225,
      "lead": 3226,
      "tical": 3227,
      "siendo": 3228,
      "partido": 3229,
      "web": 3230,
      "green": 3231,
      "barco": 3232,
      "raining": 3233,
      "propia": 3234,
      "exactly": 3235,
      "jugando": 3236,
      "presidente": 3237,
      "prefiero": 3238,
      "due": 3239,
      "tie": 3240,
      "rojo": 3241,
      "sir": 3242,
      "fif": 3243,
      "broken": 3244,
      "cenar": 3245,
      "viajar": 3246,
      "crying": 3247,
      "kids": 3248,
      "eight": 3249,
      "ona": 3250,
      "puerto": 3251,
      "carro": 3252,
      "fur": 3253,
      "empie": 3254,
      "venga": 3255,
      "discu": 3256,
      "worked": 3257,
      "tries": 3258,
      "estará": 3259,
      "favorito": 3260,
      "probably": 3261,
      "fat": 3262,
      "rás": 3263,
      "argu": 3264,
      "repe": 3265,
      "vein": 3266,
      "pair": 3267,
      "precio": 3268,
      "accept": 3269,
      "check": 3270,
      "rules": 3271,
      "volun": 3272,
      "universidad": 3273,
      "trabajando": 3274,
      "situación": 3275,
      "golpe": 3276,
      "either": 3277,
      "asleep": 3278,
      "portu": 3279,
      "tenga": 3280,
      "biendo": 3281,
      "despe": 3282,
      "shar": 3283,
      "esperaba": 3284,
      "senti": 3285,
      "dijiste": 3286,
      "rompió": 3287,
      "plu": 3288,
      "investi": 3289,
      "ora": 3290,
      "tamos": 3291,
      "advan": 3292,
      "somebody": 3293,
      "horse": 3294,
      "zada": 3295,
      "común": 3296,
      "seeing": 3297,
      "internet": 3298,
      "vosotros": 3299,
      "exactamente": 3300,
      "abuelo": 3301,
      "idos": 3302,
      "ring": 3303,
      "anos": 3304,
      "reac": 3305,
      "chur": 3306,
      "mensa": 3307,
      "claro": 3308,
      "spoke": 3309,
      "practi": 3310,
      "lucky": 3311,
      "nan": 3312,
      "ticos": 3313,
      "ently": 3314,
      "admit": 3315,
      "invierno": 3316,
      "campo": 3317,
      "gle": 3318,
      "vela": 3319,
      "deal": 3320,
      "using": 3321,
      "advis": 3322,
      "guess": 3323,
      "acti": 3324,
      "cional": 3325,
      "estaré": 3326,
      "escribió": 3327,
      "clases": 3328,
      "pensando": 3329,
      "econo": 3330,
      "gún": 3331,
      "ias": 3332,
      "twi": 3333,
      "ñe": 3334,
      "ass": 3335,
      "remo": 3336,
      "haces": 3337,
      "moon": 3338,
      "peace": 3339,
      "acá": 3340,
      "ésta": 3341,
      "seemed": 3342,
      "enferme": 3343,
      "abandoned": 3344,
      "president": 3345,
      "kiss": 3346,
      "ler": 3347,
      "sand": 3348,
      "cuid": 3349,
      "parís": 3350,
      "teleph": 3351,
      "aka": 3352,
      "igles": 3353,
      "pesar": 3354,
      "información": 3355,
      "russi": 3356,
      "thous": 3357,
      "infor": 3358,
      "docu": 3359,
      "tation": 3360,
      "trá": 3361,
      "poin": 3362,
      "gues": 3363,
      "reser": 3364,
      "pensa": 3365,
      "buenas": 3366,
      "appro": 3367,
      "temperat": 3368,
      "translate": 3369,
      "acaba": 3370,
      "bailar": 3371,
      "asunto": 3372,
      "necessary": 3373,
      "thousand": 3374,
      "cell": 3375,
      "luna": 3376,
      "romp": 3377,
      "passed": 3378,
      "pasada": 3379,
      "montón": 3380,
      "interna": 3381,
      "matar": 3382,
      "ocurrió": 3383,
      "information": 3384,
      "simplemente": 3385,
      "natural": 3386,
      "eggs": 3387,
      "huevos": 3388,
      "mountain": 3389,
      "telephone": 3390,
      "agre": 3391,
      "kitch": 3392,
      "sle": 3393,
      "yer": 3394,
      "hacen": 3395,
      "coat": 3396,
      "drunk": 3397,
      "talked": 3398,
      "boys": 3399,
      "evening": 3400,
      "television": 3401,
      "durmi": 3402,
      "abrir": 3403,
      "golf": 3404,
      "peligroso": 3405,
      "kitchen": 3406,
      "aero": 3407,
      "mou": 3408,
      "enfa": 3409,
      "entra": 3410,
      "dies": 3411,
      "digas": 3412,
      "hablas": 3413,
      "hablan": 3414,
      "france": 3415,
      "abuela": 3416,
      "futuro": 3417,
      "hermosa": 3418,
      "eye": 3419,
      "kni": 3420,
      "thre": 3421,
      "defin": 3422,
      "novio": 3423,
      "taza": 3424,
      "uses": 3425,
      "suce": 3426,
      "vil": 3427,
      "mom": 3428,
      "native": 3429,
      "éste": 3430,
      "servi": 3431,
      "posed": 3432,
      "taste": 3433,
      "francia": 3434,
      "perió": 3435,
      "piece": 3436,
      "arrive": 3437,
      "peligro": 3438,
      "church": 3439,
      "cán": 3440,
      "zando": 3441,
      "rio": 3442,
      "mach": 3443,
      "sopor": 3444,
      "suel": 3445,
      "tero": 3446,
      "lying": 3447,
      "prend": 3448,
      "verdadera": 3449,
      "origin": 3450,
      "govern": 3451,
      "ajedrez": 3452,
      "cing": 3453,
      "zos": 3454,
      "thor": 3455,
      "ore": 3456,
      "repen": 3457,
      "tate": 3458,
      "cate": 3459,
      "patient": 3460,
      "descan": 3461,
      "caro": 3462,
      "missed": 3463,
      "gru": 3464,
      "escrito": 3465,
      "ult": 3466,
      "birds": 3467,
      "belong": 3468,
      "iglesia": 3469,
      "umbr": 3470,
      "inst": 3471,
      "rep": 3472,
      "hago": 3473,
      "tail": 3474,
      "cuchi": 3475,
      "ture": 3476,
      "quiet": 3477,
      "delante": 3478,
      "serio": 3479,
      "finalmente": 3480,
      "comien": 3481,
      "fruit": 3482,
      "welcome": 3483,
      "pizza": 3484,
      "doubt": 3485,
      "resolver": 3486,
      "energ": 3487,
      "nine": 3488,
      "peso": 3489,
      "island": 3490,
      "fact": 3491,
      "voice": 3492,
      "pongo": 3493,
      "newspa": 3494,
      "boyfriend": 3495,
      "opened": 3496,
      "junto": 3497,
      "caballo": 3498,
      "twice": 3499,
      "mouth": 3500,
      "newspaper": 3501,
      "ios": 3502,
      "inside": 3503,
      "taba": 3504,
      "cuad": 3505,
      "bear": 3506,
      "hide": 3507,
      "traf": 3508,
      "alive": 3509,
      "querés": 3510,
      "medicine": 3511,
      "walked": 3512,
      "azul": 3513,
      "intelli": 3514,
      "llevaba": 3515,
      "situation": 3516,
      "caliente": 3517,
      "evitar": 3518,
      "ade": 3519,
      "dest": 3520,
      "há": 3521,
      "mba": 3522,
      "ocho": 3523,
      "causa": 3524,
      "guy": 3525,
      "history": 3526,
      "carry": 3527,
      "compli": 3528,
      "necesario": 3529,
      "dejes": 3530,
      "cambio": 3531,
      "caminar": 3532,
      "grandfather": 3533,
      "divertido": 3534,
      "movies": 3535,
      "melo": 3536,
      "áis": 3537,
      "inven": 3538,
      "suf": 3539,
      "lleno": 3540,
      "iré": 3541,
      "desk": 3542,
      "across": 3543,
      "decidió": 3544,
      "minute": 3545,
      "amable": 3546,
      "manzana": 3547,
      "traffic": 3548,
      "iendo": 3549,
      "wind": 3550,
      "zi": 3551,
      "ining": 3552,
      "chas": 3553,
      "hood": 3554,
      "bio": 3555,
      "paz": 3556,
      "duer": 3557,
      "tingu": 3558,
      "estudiando": 3559,
      "arios": 3560,
      "visited": 3561,
      "decisión": 3562,
      "video": 3563,
      "existen": 3564,
      "correr": 3565,
      "montaña": 3566,
      "dle": 3567,
      "útil": 3568,
      "almuer": 3569,
      "dime": 3570,
      "chris": 3571,
      "rada": 3572,
      "irse": 3573,
      "sala": 3574,
      "male": 3575,
      "gers": 3576,
      "conocido": 3577,
      "fool": 3578,
      "driving": 3579,
      "phy": 3580,
      "ocupada": 3581,
      "london": 3582,
      "succe": 3583,
      "canadian": 3584,
      "sweet": 3585,
      "guitarra": 3586,
      "obe": 3587,
      "ocul": 3588,
      "sá": 3589,
      "twent": 3590,
      "zz": 3591,
      "oran": 3592,
      "lago": 3593,
      "mpo": 3594,
      "sión": 3595,
      "marido": 3596,
      "market": 3597,
      "fiel": 3598,
      "dura": 3599,
      "graf": 3600,
      "gradu": 3601,
      "fotos": 3602,
      "leaves": 3603,
      "driver": 3604,
      "prison": 3605,
      "londres": 3606,
      "conversa": 3607,
      "ambos": 3608,
      "twenty": 3609,
      "!\"": 3610,
      "apart": 3611,
      "echar": 3612,
      "hy": 3613,
      "stru": 3614,
      "yel": 3615,
      "yed": 3616,
      "convin": 3617,
      "cuse": 3618,
      "suici": 3619,
      "vien": 3620,
      "sage": 3621,
      "hermanos": 3622,
      "duele": 3623,
      "cionado": 3624,
      "nuestras": 3625,
      "comió": 3626,
      "leaving": 3627,
      "blame": 3628,
      "sleeping": 3629,
      "explicar": 3630,
      "nancy": 3631,
      "odi": 3632,
      "rí": 3633,
      "marry": 3634,
      "desay": 3635,
      "dose": 3636,
      "larga": 3637,
      "brown": 3638,
      "post": 3639,
      "personal": 3640,
      "plays": 3641,
      "aleman": 3642,
      "singing": 3643,
      "tranqui": 3644,
      "pensaba": 3645,
      "siguiente": 3646,
      "probablemente": 3647,
      "acaso": 3648,
      "quí": 3649,
      "cient": 3650,
      "silen": 3651,
      "irme": 3652,
      "traje": 3653,
      "rank": 3654,
      "vaso": 3655,
      "correcto": 3656,
      "univers": 3657,
      "listening": 3658,
      "coura": 3659,
      "justi": 3660,
      "smile": 3661,
      "próxima": 3662,
      "electri": 3663,
      "baseball": 3664,
      "machine": 3665,
      "ismo": 3666,
      "digo": 3667,
      "maravi": 3668,
      "pic": 3669,
      "prohi": 3670,
      "nie": 3671,
      "casado": 3672,
      "common": 3673,
      "amiga": 3674,
      "stitu": 3675,
      "comiendo": 3676,
      "sitting": 3677,
      "considera": 3678,
      "neither": 3679,
      "course": 3680,
      "waited": 3681,
      "knife": 3682,
      "dando": 3683,
      "keys": 3684,
      "save": 3685,
      "exist": 3686,
      "compe": 3687,
      "worse": 3688,
      "illo": 3689,
      "comido": 3690,
      "solve": 3691,
      "view": 3692,
      "walking": 3693,
      "younger": 3694,
      "entró": 3695,
      "camisa": 3696,
      "ctamente": 3697,
      "nes": 3698,
      "sar": 3699,
      "stor": 3700,
      "whate": 3701,
      "gobi": 3702,
      "nació": 3703,
      "regal": 3704,
      "países": 3705,
      "draw": 3706,
      "dormido": 3707,
      "whatever": 3708,
      "100": 3709,
      "phi": 3710,
      "rel": 3711,
      "regu": 3712,
      "logr": 3713,
      "cone": 3714,
      "multi": 3715,
      "proye": 3716,
      "paraguas": 3717,
      "excuse": 3718,
      "jeros": 3719,
      "enemi": 3720,
      "responder": 3721,
      "difference": 3722,
      "comenzó": 3723,
      "vacation": 3724,
      "general": 3725,
      "beginning": 3726,
      "zen": 3727,
      "érica": 3728,
      "dile": 3729,
      "divor": 3730,
      "trás": 3731,
      "cular": 3732,
      "choice": 3733,
      "olvida": 3734,
      "frases": 3735,
      "ination": 3736,
      "pedí": 3737,
      "showed": 3738,
      "sangre": 3739,
      "invited": 3740,
      "agradable": 3741,
      "signifi": 3742,
      "vendrá": 3743,
      "aconse": 3744,
      "afortuna": 3745,
      "ores": 3746,
      "tron": 3747,
      "lied": 3748,
      "beat": 3749,
      "pick": 3750,
      "crimin": 3751,
      "deberes": 3752,
      "prisa": 3753,
      "europa": 3754,
      "airport": 3755,
      "logy": 3756,
      "abogado": 3757,
      "promise": 3758,
      "utili": 3759,
      "fantas": 3760,
      "squ": 3761,
      "wise": 3762,
      "tivos": 3763,
      "abroad": 3764,
      "sugar": 3765,
      "address": 3766,
      "creen": 3767,
      "identi": 3768,
      "hubo": 3769,
      "player": 3770,
      "trees": 3771,
      "vayas": 3772,
      "canadiense": 3773,
      "murder": 3774,
      "encontrado": 3775,
      "matemáticas": 3776,
      "umbrella": 3777,
      "50": 3778,
      "cé": 3779,
      "ctions": 3780,
      "inclu": 3781,
      "detrás": 3782,
      "desear": 3783,
      "cars": 3784,
      "compor": 3785,
      "ilt": 3786,
      "single": 3787,
      "warm": 3788,
      "diferente": 3789,
      "actually": 3790,
      "apologi": 3791,
      "heavy": 3792,
      "aeropuerto": 3793,
      "levan": 3794,
      "rid": 3795,
      "pared": 3796,
      "perdon": 3797,
      "tenés": 3798,
      "reglas": 3799,
      "miró": 3800,
      "mirando": 3801,
      "azú": 3802,
      "taller": 3803,
      "linda": 3804,
      "recordar": 3805,
      "smart": 3806,
      "alcohol": 3807,
      "esfuer": 3808,
      "ería": 3809,
      "rato": 3810,
      "venta": 3811,
      "monos": 3812,
      "ayuno": 3813,
      "compren": 3814,
      "lenguas": 3815,
      "enemy": 3816,
      "position": 3817,
      "propio": 3818,
      "lawyer": 3819,
      "deseo": 3820,
      "domingo": 3821,
      "azúcar": 3822,
      "acer": 3823,
      "gando": 3824,
      "debido": 3825,
      "osos": 3826,
      "lavar": 3827,
      "cita": 3828,
      "chino": 3829,
      "gold": 3830,
      "cula": 3831,
      "curi": 3832,
      "simi": 3833,
      "vivi": 3834,
      "perten": 3835,
      "mantener": 3836,
      "guys": 3837,
      "choose": 3838,
      "gift": 3839,
      "eats": 3840,
      "boss": 3841,
      "mercado": 3842,
      "borrow": 3843,
      "cuerpo": 3844,
      "yste": 3845,
      "failed": 3846,
      "slowly": 3847,
      "totalmente": 3848,
      "government": 3849,
      "18": 3850,
      "ker": 3851,
      "ised": 3852,
      "regar": 3853,
      "revis": 3854,
      "regre": 3855,
      "concierto": 3856,
      "desayuno": 3857,
      "mbers": 3858,
      "llega": 3859,
      "ándo": 3860,
      "jefe": 3861,
      "felices": 3862,
      "nervi": 3863,
      "pág": 3864,
      "sounds": 3865,
      "engañ": 3866,
      "naran": 3867,
      "cuchillo": 3868,
      "béis": 3869,
      "ló": 3870,
      "vado": 3871,
      "toca": 3872,
      "cumpli": 3873,
      "soñ": 3874,
      "pod": 3875,
      "pies": 3876,
      "casó": 3877,
      "llegado": 3878,
      "estuve": 3879,
      "segura": 3880,
      "suficientemente": 3881,
      "experiencia": 3882,
      "imagin": 3883,
      "pájaro": 3884,
      "almuerzo": 3885,
      "béisbol": 3886,
      "cro": 3887,
      "gn": 3888,
      "gü": 3889,
      "pone": 3890,
      "rent": 3891,
      "siste": 3892,
      "ini": 3893,
      "insul": 3894,
      "dices": 3895,
      "atrás": 3896,
      "cier": 3897,
      "hola": 3898,
      "simp": 3899,
      "iría": 3900,
      "américa": 3901,
      "weren": 3902,
      "weekend": 3903,
      "easily": 3904,
      "ículo": 3905,
      "experience": 3906,
      "pictures": 3907,
      "dijeron": 3908,
      "izquier": 3909,
      "pudiera": 3910,
      "village": 3911,
      "ccer": 3912,
      "crow": 3913,
      "vali": 3914,
      "lake": 3915,
      "tec": 3916,
      "inglater": 3917,
      "rieron": 3918,
      "soccer": 3919,
      "sight": 3920,
      "paró": 3921,
      "ports": 3922,
      "cartas": 3923,
      "centro": 3924,
      "prima": 3925,
      "mejores": 3926,
      "terminó": 3927,
      "sospe": 3928,
      "diferencia": 3929,
      "principal": 3930,
      "concert": 3931,
      "inglaterra": 3932,
      "mue": 3933,
      "pant": 3934,
      "spr": 3935,
      "syste": 3936,
      "reír": 3937,
      "itó": 3938,
      "lido": 3939,
      "holi": 3940,
      "silla": 3941,
      "trav": 3942,
      "taron": 3943,
      "llegué": 3944,
      "speech": 3945,
      "ventu": 3946,
      "funciona": 3947,
      "ahor": 3948,
      "ísi": 3949,
      "ended": 3950,
      "cioso": 3951,
      "lik": 3952,
      "sito": 3953,
      "paciente": 3954,
      "grat": 3955,
      "tony": 3956,
      "grandmother": 3957,
      "intentó": 3958,
      "frecu": 3959,
      "público": 3960,
      "advised": 3961,
      "sr": 3962,
      "sw": 3963,
      "ster": 3964,
      "sna": 3965,
      "zing": 3966,
      "aly": 3967,
      "motor": 3968,
      "comfor": 3969,
      "chicos": 3970,
      "type": 3971,
      "brus": 3972,
      "escritorio": 3973,
      "brothers": 3974,
      "fishing": 3975,
      "ordenador": 3976,
      "apples": 3977,
      "prueba": 3978,
      "suddenly": 3979,
      "avo": 3980,
      "bí": 3981,
      "drank": 3982,
      "inci": 3983,
      "intro": 3984,
      "qual": 3985,
      "maestro": 3986,
      "mari": 3987,
      "bilidad": 3988,
      "feed": 3989,
      "acor": 3990,
      "bara": 3991,
      "countries": 3992,
      "bello": 3993,
      "olvidar": 3994,
      "cruel": 3995,
      "hicieron": 3996,
      "partici": 3997,
      "noticias": 3998,
      "cente": 3999,
      "rat": 4000,
      "ying": 4001,
      "forward": 4002,
      "llen": 4003,
      "ambi": 4004,
      "tribu": 4005,
      "england": 4006,
      "sabemos": 4007,
      "llevó": 4008,
      "shopping": 4009,
      "film": 4010,
      "organi": 4011,
      "gobierno": 4012,
      "proyecto": 4013,
      "eses": 4014,
      "defe": 4015,
      "decep": 4016,
      "debajo": 4017,
      "tici": 4018,
      "quedé": 4019,
      "verde": 4020,
      "mando": 4021,
      "bille": 4022,
      "pasando": 4023,
      "llevo": 4024,
      "impro": 4025,
      "humor": 4026,
      "mental": 4027,
      "sentir": 4028,
      "borra": 4029,
      "geni": 4030,
      "ticket": 4031,
      "favorita": 4032,
      "responsab": 4033,
      "clima": 4034,
      "manzanas": 4035,
      "libertad": 4036,
      "llueve": 4037,
      "mensaje": 4038,
      "enfermedad": 4039,
      "slept": 4040,
      "likely": 4041,
      "pele": 4042,
      "vó": 4043,
      "aria": 4044,
      "ann": 4045,
      "tampo": 4046,
      "divi": 4047,
      "consu": 4048,
      "suena": 4049,
      "empty": 4050,
      "pencil": 4051,
      "price": 4052,
      "buscar": 4053,
      "dence": 4054,
      "conocí": 4055,
      "treat": 4056,
      "risa": 4057,
      "blind": 4058,
      "soup": 4059,
      "segundo": 4060,
      "suffer": 4061,
      "tampoco": 4062,
      "none": 4063,
      "recent": 4064,
      "teeth": 4065,
      "unci": 4066,
      "tage": 4067,
      "cot": 4068,
      "estáis": 4069,
      "crea": 4070,
      "paso": 4071,
      "planet": 4072,
      "funny": 4073,
      "climb": 4074,
      "yellow": 4075,
      "fed": 4076,
      "gana": 4077,
      "eral": 4078,
      "tears": 4079,
      "hacía": 4080,
      "estés": 4081,
      "viento": 4082,
      "add": 4083,
      "existe": 4084,
      "acter": 4085,
      "llaves": 4086,
      "conoces": 4087,
      "telling": 4088,
      "bosque": 4089,
      "happens": 4090,
      "usual": 4091,
      "couple": 4092,
      "smith": 4093,
      "confiar": 4094,
      "diciendo": 4095,
      "cola": 4096,
      "robar": 4097,
      "mike": 4098,
      "abrió": 4099,
      "estábamos": 4100,
      "jump": 4101,
      "vuelto": 4102,
      "universe": 4103,
      "universo": 4104,
      "brazo": 4105,
      "abrigo": 4106,
      "veinte": 4107,
      "novela": 4108,
      "contro": 4109,
      "bebe": 4110,
      "sopa": 4111,
      "entas": 4112,
      "permis": 4113,
      "ney": 4114,
      "geor": 4115,
      "gaz": 4116,
      "asegu": 4117,
      "humanos": 4118,
      "estaría": 4119,
      "sentó": 4120,
      "escribe": 4121,
      "million": 4122,
      "pieza": 4123,
      "skura": 4124,
      "respect": 4125,
      "piso": 4126,
      "contento": 4127,
      "ism": 4128,
      "domin": 4129,
      "ingen": 4130,
      "dimos": 4131,
      "itas": 4132,
      "usion": 4133,
      "boles": 4134,
      "fault": 4135,
      "sacó": 4136,
      "casti": 4137,
      "act": 4138,
      "accor": 4139,
      "commit": 4140,
      "aquella": 4141,
      "gustaba": 4142,
      "nueve": 4143,
      "decirle": 4144,
      "kilo": 4145,
      "pájaros": 4146,
      "scared": 4147,
      "estúpido": 4148,
      "principio": 4149,
      "repente": 4150,
      "non": 4151,
      "indepen": 4152,
      "alma": 4153,
      "daño": 4154,
      "siente": 4155,
      "mante": 4156,
      "pill": 4157,
      "habrá": 4158,
      "aquellos": 4159,
      "germany": 4160,
      "adora": 4161,
      "shot": 4162,
      "minuto": 4163,
      "fuimos": 4164,
      "cooking": 4165,
      "wonderful": 4166,
      "dejado": 4167,
      "noticia": 4168,
      "siguió": 4169,
      "varios": 4170,
      "bres": 4171,
      "anda": 4172,
      "inno": 4173,
      "recha": 4174,
      "comb": 4175,
      "colu": 4176,
      "dados": 4177,
      "chu": 4178,
      "ria": 4179,
      "mark": 4180,
      "built": 4181,
      "exper": 4182,
      "hable": 4183,
      "gros": 4184,
      "ninguno": 4185,
      "pescado": 4186,
      "piness": 4187,
      "respecto": 4188,
      "spoken": 4189,
      "bonita": 4190,
      "logía": 4191,
      "promised": 4192,
      "alemania": 4193,
      "pertene": 4194,
      "regret": 4195,
      "ejer": 4196,
      "sli": 4197,
      "oración": 4198,
      "meter": 4199,
      "tomo": 4200,
      "titu": 4201,
      "diga": 4202,
      "licen": 4203,
      "tuvimos": 4204,
      "comprado": 4205,
      "worried": 4206,
      "precia": 4207,
      "prise": 4208,
      "horri": 4209,
      "sty": 4210,
      "dise": 4211,
      "distingu": 4212,
      "tones": 4213,
      "happiness": 4214,
      "jugue": 4215,
      "importan": 4216,
      "list": 4217,
      "juega": 4218,
      "abierta": 4219,
      "famoso": 4220,
      "encima": 4221,
      "silencio": 4222,
      "spring": 4223,
      "ojo": 4224,
      "zu": 4225,
      "espal": 4226,
      "vecin": 4227,
      "culo": 4228,
      "vera": 4229,
      "hier": 4230,
      "bother": 4231,
      "disap": 4232,
      "ounded": 4233,
      "helado": 4234,
      "estuviera": 4235,
      "habló": 4236,
      "intentando": 4237,
      "comenzar": 4238,
      "immedi": 4239,
      "pointed": 4240,
      "storm": 4241,
      "introdu": 4242,
      "kate": 4243,
      "stri": 4244,
      "asis": 4245,
      "assu": 4246,
      "ons": 4247,
      "dedi": 4248,
      "ham": 4249,
      "moved": 4250,
      "cancel": 4251,
      "poca": 4252,
      "joke": 4253,
      "project": 4254,
      "among": 4255,
      "rumor": 4256,
      "ganó": 4257,
      "lity": 4258,
      "xico": 4259,
      "standing": 4260,
      "enemigo": 4261,
      "árboles": 4262,
      "space": 4263,
      "satur": 4264,
      "líne": 4265,
      "traducir": 4266,
      "varias": 4267,
      "cocinar": 4268,
      "fortunately": 4269,
      "efe": 4270,
      "ima": 4271,
      "incen": 4272,
      "dial": 4273,
      "contó": 4274,
      "cubi": 4275,
      "sug": 4276,
      "partir": 4277,
      "pastel": 4278,
      "cheese": 4279,
      "held": 4280,
      "message": 4281,
      "studied": 4282,
      "culp": 4283,
      "ctory": 4284,
      "felicidad": 4285,
      "rápidamente": 4286,
      "vini": 4287,
      "washing": 4288,
      "periódico": 4289,
      "maravillos": 4290,
      "sistema": 4291,
      "system": 4292,
      "sla": 4293,
      "ór": 4294,
      "demo": 4295,
      "leo": 4296,
      "semanas": 4297,
      "destro": 4298,
      "ficial": 4299,
      "gusto": 4300,
      "corriendo": 4301,
      "busca": 4302,
      "esperanza": 4303,
      "materi": 4304,
      "correo": 4305,
      "bridge": 4306,
      "valor": 4307,
      "nature": 4308,
      "painting": 4309,
      "meaning": 4310,
      "encuentra": 4311,
      "employe": 4312,
      "portugu": 4313,
      "comfortable": 4314,
      "afuera": 4315,
      "gni": 4316,
      "yu": 4317,
      "enor": 4318,
      "aría": 4319,
      "ines": 4320,
      "metros": 4321,
      "limp": 4322,
      "miles": 4323,
      "vious": 4324,
      "butter": 4325,
      "llamas": 4326,
      "grou": 4327,
      "useful": 4328,
      "author": 4329,
      "centr": 4330,
      "olvidé": 4331,
      "dreams": 4332,
      "especi": 4333,
      "enamorado": 4334,
      "apareció": 4335,
      "cand": 4336,
      "echa": 4337,
      "qua": 4338,
      "lamento": 4339,
      "leído": 4340,
      "soci": 4341,
      "forgive": 4342,
      "hiding": 4343,
      "trai": 4344,
      "aña": 4345,
      "inste": 4346,
      "dejé": 4347,
      "asiento": 4348,
      "piedra": 4349,
      "asu": 4350,
      "roman": 4351,
      "beha": 4352,
      "tería": 4353,
      "jada": 4354,
      "adop": 4355,
      "share": 4356,
      "crime": 4357,
      "interesa": 4358,
      "ayudó": 4359,
      "hará": 4360,
      "feelings": 4361,
      "surprise": 4362,
      "máquina": 4363,
      "vuelve": 4364,
      "olvidó": 4365,
      "diferentes": 4366,
      "step": 4367,
      "fuerza": 4368,
      "finger": 4369,
      "normalmente": 4370,
      "appeared": 4371,
      "regular": 4372,
      "cun": 4373,
      "rup": 4374,
      "zan": 4375,
      "éramos": 4376,
      "temo": 4377,
      "dima": 4378,
      "rock": 4379,
      "estan": 4380,
      "abre": 4381,
      "bomb": 4382,
      "venes": 4383,
      "gustó": 4384,
      "tormenta": 4385,
      "grave": 4386,
      "special": 4387,
      "presa": 4388,
      "sentado": 4389,
      "soldi": 4390,
      "happening": 4391,
      "posición": 4392,
      "jóvenes": 4393,
      "received": 4394,
      "physi": 4395,
      "university": 4396,
      "desearía": 4397,
      "\",": 4398,
      "cros": 4399,
      "glo": 4400,
      "nari": 4401,
      "zca": 4402,
      "ori": 4403,
      "tamento": 4404,
      "tengas": 4405,
      "pocos": 4406,
      "puente": 4407,
      "progres": 4408,
      "destru": 4409,
      "nic": 4410,
      "exci": 4411,
      "pasé": 4412,
      "gico": 4413,
      "estudio": 4414,
      "stair": 4415,
      "vieja": 4416,
      "correcta": 4417,
      "volveré": 4418,
      "resultado": 4419,
      "ocurri": 4420,
      "deben": 4421,
      "science": 4422,
      "inmediatamente": 4423,
      "vous": 4424,
      "india": 4425,
      "aso": 4426,
      "asus": 4427,
      "thema": 4428,
      "según": 4429,
      "cierra": 4430,
      "damos": 4431,
      "roja": 4432,
      "caus": 4433,
      "verlo": 4434,
      "madamente": 4435,
      "mathema": 4436,
      "terior": 4437,
      "waste": 4438,
      "mentir": 4439,
      "pol": 4440,
      "cero": 4441,
      "empres": 4442,
      "acus": 4443,
      "letas": 4444,
      "frica": 4445,
      "salt": 4446,
      "pareces": 4447,
      "ility": 4448,
      "rosa": 4449,
      "nervous": 4450,
      "ctura": 4451,
      "shower": 4452,
      "agrade": 4453,
      "hiciera": 4454,
      "aceptar": 4455,
      "segunda": 4456,
      "recuerda": 4457,
      "primavera": 4458,
      "pesa": 4459,
      "recu": 4460,
      "teor": 4461,
      "leza": 4462,
      "till": 4463,
      "dibu": 4464,
      "dama": 4465,
      "rome": 4466,
      "estó": 4467,
      "ónde": 4468,
      "cano": 4469,
      "baja": 4470,
      "sacar": 4471,
      "duda": 4472,
      "llegue": 4473,
      "cualquiera": 4474,
      "honor": 4475,
      "trató": 4476,
      "quizá": 4477,
      "similar": 4478,
      "izquierda": 4479,
      "according": 4480,
      "ejerci": 4481,
      "emi": 4482,
      "odia": 4483,
      "declar": 4484,
      "osaka": 4485,
      "lee": 4486,
      "abra": 4487,
      "supongo": 4488,
      "ford": 4489,
      "exer": 4490,
      "stone": 4491,
      "deberían": 4492,
      "nuevos": 4493,
      "quedarse": 4494,
      "flower": 4495,
      "descubri": 4496,
      "fresh": 4497,
      "purpose": 4498,
      "layla": 4499,
      "ego": 4500,
      "tén": 4501,
      "ison": 4502,
      "eless": 4503,
      "queso": 4504,
      "alum": 4505,
      "verme": 4506,
      "perdón": 4507,
      "kets": 4508,
      "llena": 4509,
      "estadou": 4510,
      "bow": 4511,
      "pira": 4512,
      "niden": 4513,
      "gafas": 4514,
      "premi": 4515,
      "tors": 4516,
      "button": 4517,
      "hello": 4518,
      "ayudarte": 4519,
      "hardly": 4520,
      "sueños": 4521,
      "wedding": 4522,
      "dulce": 4523,
      "orgulloso": 4524,
      "texto": 4525,
      "sentimientos": 4526,
      "estadouniden": 4527,
      "ier": 4528,
      "influ": 4529,
      "sear": 4530,
      "cow": 4531,
      "ability": 4532,
      "permane": 4533,
      "guil": 4534,
      "resto": 4535,
      "abajo": 4536,
      "letters": 4537,
      "tonto": 4538,
      "state": 4539,
      "themselves": 4540,
      "spain": 4541,
      "profesora": 4542,
      "españa": 4543,
      "botella": 4544,
      "arreglar": 4545,
      "photo": 4546,
      "través": 4547,
      "george": 4548,
      "ula": 4549,
      "tho": 4550,
      "ond": 4551,
      "tax": 4552,
      "cigar": 4553,
      "coger": 4554,
      "miemb": 4555,
      "ride": 4556,
      "rains": 4557,
      "lasti": 4558,
      "sons": 4559,
      "chicas": 4560,
      "stolen": 4561,
      "ruin": 4562,
      "puedas": 4563,
      "planes": 4564,
      "cuidados": 4565,
      "arroz": 4566,
      "memoria": 4567,
      "college": 4568,
      "emer": 4569,
      "mbo": 4570,
      "tour": 4571,
      "thie": 4572,
      "asking": 4573,
      "lation": 4574,
      "notic": 4575,
      "metro": 4576,
      "rode": 4577,
      "rice": 4578,
      "main": 4579,
      "menor": 4580,
      "carre": 4581,
      "tarta": 4582,
      "compos": 4583,
      "gido": 4584,
      "bye": 4585,
      "decidido": 4586,
      "understood": 4587,
      "bolsa": 4588,
      "virtió": 4589,
      "carefully": 4590,
      "beauty": 4591,
      "fruta": 4592,
      "facebook": 4593,
      "perfecto": 4594,
      "bottle": 4595,
      "lágri": 4596,
      "educación": 4597,
      "kissed": 4598,
      "domingos": 4599,
      "almorzar": 4600,
      "ladrón": 4601,
      "courage": 4602,
      "horrible": 4603,
      "aprend": 4604,
      "lend": 4605,
      "throw": 4606,
      "tables": 4607,
      "taught": 4608,
      "confun": 4609,
      "maria": 4610,
      "adónde": 4611,
      "bike": 4612,
      "cerrar": 4613,
      "cken": 4614,
      "pensó": 4615,
      "vate": 4616,
      "somewhere": 4617,
      "upon": 4618,
      "calm": 4619,
      "compras": 4620,
      "boring": 4621,
      "decirme": 4622,
      "pescar": 4623,
      "ctivo": 4624,
      "familiar": 4625,
      "enferma": 4626,
      "llamada": 4627,
      "plant": 4628,
      "supposed": 4629,
      "crí": 4630,
      "especial": 4631,
      "above": 4632,
      "estrellas": 4633,
      "empieza": 4634,
      "hábi": 4635,
      "desayun": 4636,
      "bella": 4637,
      "eter": 4638,
      "kno": 4639,
      "muni": 4640,
      "alter": 4641,
      "lat": 4642,
      "copi": 4643,
      "liar": 4644,
      "adver": 4645,
      "adul": 4646,
      "despa": 4647,
      "except": 4648,
      "brit": 4649,
      "dencia": 4650,
      "literat": 4651,
      "mater": 4652,
      "lloviendo": 4653,
      "wallet": 4654,
      "drinks": 4655,
      "necesitaba": 4656,
      "quedarme": 4657,
      "honesto": 4658,
      "empleo": 4659,
      "middle": 4660,
      "allowed": 4661,
      "russian": 4662,
      "aconsejó": 4663,
      "immediately": 4664,
      "instead": 4665,
      "stairs": 4666,
      "ré": 4667,
      "invent": 4668,
      "tema": 4669,
      "text": 4670,
      "legs": 4671,
      "sibi": 4672,
      "tente": 4673,
      "bata": 4674,
      "resfri": 4675,
      "traer": 4676,
      "tradi": 4677,
      "tramp": 4678,
      "accep": 4679,
      "torta": 4680,
      "match": 4681,
      "sentía": 4682,
      "aprendiendo": 4683,
      "belleza": 4684,
      "espacio": 4685,
      "olvides": 4686,
      "relación": 4687,
      "naturale": 4688,
      "permitir": 4689,
      "durmiendo": 4690,
      "verdaderamente": 4691,
      "recently": 4692,
      "behavi": 4693,
      "afe": 4694,
      "aje": 4695,
      "kyo": 4696,
      "ns": 4697,
      "lots": 4698,
      "itu": 4699,
      "lier": 4700,
      "mitad": 4701,
      "cute": 4702,
      "ofre": 4703,
      "sua": 4704,
      "hob": 4705,
      "forest": 4706,
      "boat": 4707,
      "fill": 4708,
      "carr": 4709,
      "platos": 4710,
      "coment": 4711,
      "hell": 4712,
      "tongue": 4713,
      "plans": 4714,
      "faster": 4715,
      "feels": 4716,
      "dirty": 4717,
      "películas": 4718,
      "política": 4719,
      "defen": 4720,
      "gera": 4721,
      "ski": 4722,
      "report": 4723,
      "diente": 4724,
      "magaz": 4725,
      "soli": 4726,
      "sufri": 4727,
      "pocas": 4728,
      "ghos": 4729,
      "mbra": 4730,
      "fuiste": 4731,
      "gic": 4732,
      "humano": 4733,
      "monio": 4734,
      "bru": 4735,
      "bored": 4736,
      "stars": 4737,
      "brill": 4738,
      "últimamente": 4739,
      "anciano": 4740,
      "computadora": 4741,
      "aware": 4742,
      "figure": 4743,
      "aburrido": 4744,
      "naturaleza": 4745,
      "fí": 4746,
      "fad": 4747,
      "hous": 4748,
      "oil": 4749,
      "scen": 4750,
      "tidad": 4751,
      "local": 4752,
      "partes": 4753,
      "wet": 4754,
      "gate": 4755,
      "master": 4756,
      "ground": 4757,
      "guapa": 4758,
      "zoo": 4759,
      "forever": 4760,
      "sentí": 4761,
      "indus": 4762,
      "haberte": 4763,
      "conscious": 4764,
      "result": 4765,
      "soul": 4766,
      "lápiz": 4767,
      "grupo": 4768,
      "ziri": 4769,
      "succeed": 4770,
      "comporta": 4771,
      "kyoto": 4772,
      "nal": 4773,
      "encen": 4774,
      "redu": 4775,
      "muñe": 4776,
      "hielo": 4777,
      "propó": 4778,
      "sonrisa": 4779,
      "chicken": 4780,
      "seguridad": 4781,
      "stick": 4782,
      "matri": 4783,
      "medicina": 4784,
      "decirte": 4785,
      "weeks": 4786,
      "derecha": 4787,
      "healthy": 4788,
      "hermoso": 4789,
      "translation": 4790,
      "apartment": 4791,
      "avoid": 4792,
      "afi": 4793,
      "cs": 4794,
      "laug": 4795,
      "attra": 4796,
      "mado": 4797,
      "games": 4798,
      "fuji": 4799,
      "whenever": 4800,
      "comí": 4801,
      "stole": 4802,
      "artificial": 4803,
      "cientí": 4804,
      "borracho": 4805,
      "recuper": 4806,
      "noticed": 4807,
      "\"¿": 4808,
      "agar": 4809,
      "cross": 4810,
      "ical": 4811,
      "yendo": 4812,
      "inju": 4813,
      "rea": 4814,
      "refle": 4815,
      "tró": 4816,
      "math": 4817,
      "sole": 4818,
      "hogar": 4819,
      "vivía": 4820,
      "puestas": 4821,
      "probar": 4822,
      "hermanas": 4823,
      "cesa": 4824,
      "zación": 4825,
      "pados": 4826,
      "verdadero": 4827,
      "obra": 4828,
      "idiota": 4829,
      "relax": 4830,
      "relations": 4831,
      "entiende": 4832,
      "tendrá": 4833,
      "entered": 4834,
      "absolutely": 4835,
      "refused": 4836,
      "grafía": 4837,
      "ea": 4838,
      "ox": 4839,
      "ury": 4840,
      "vando": 4841,
      "archi": 4842,
      "lady": 4843,
      "unfortunately": 4844,
      "queta": 4845,
      "dig": 4846,
      "diri": 4847,
      "dificul": 4848,
      "chó": 4849,
      "cab": 4850,
      "cura": 4851,
      "poet": 4852,
      "potato": 4853,
      "dry": 4854,
      "ándose": 4855,
      "darme": 4856,
      "woke": 4857,
      "watched": 4858,
      "talks": 4859,
      "staying": 4860,
      "ayudarme": 4861,
      "muchacho": 4862,
      "depende": 4863,
      "delicious": 4864,
      "recogni": 4865,
      "italian": 4866,
      "brasil": 4867,
      "mentira": 4868,
      "oraciones": 4869,
      "reached": 4870,
      "lágrimas": 4871,
      "laughed": 4872,
      "12": 4873,
      "loud": 4874,
      "áni": 4875,
      "theor": 4876,
      "noches": 4877,
      "techo": 4878,
      "mez": 4879,
      "tame": 4880,
      "cool": 4881,
      "cause": 4882,
      "suele": 4883,
      "vier": 4884,
      "guard": 4885,
      "habían": 4886,
      "card": 4887,
      "ceso": 4888,
      "amista": 4889,
      "predi": 4890,
      "dru": 4891,
      "talento": 4892,
      "crimen": 4893,
      "decide": 4894,
      "rule": 4895,
      "ledge": 4896,
      "pieces": 4897,
      "clou": 4898,
      "skin": 4899,
      "custom": 4900,
      "cousin": 4901,
      "policeman": 4902,
      "drop": 4903,
      "contacto": 4904,
      "bonito": 4905,
      "jugador": 4906,
      "jackson": 4907,
      "escape": 4908,
      "satisfe": 4909,
      "paseo": 4910,
      "intelligent": 4911,
      "apologize": 4912,
      "podés": 4913,
      "premio": 4914,
      "athe": 4915,
      "effe": 4916,
      "gay": 4917,
      "pper": 4918,
      "repu": 4919,
      "returned": 4920,
      "tech": 4921,
      "italia": 4922,
      "mario": 4923,
      "tuyo": 4924,
      "wears": 4925,
      "paciencia": 4926,
      "resu": 4927,
      "prof": 4928,
      "filled": 4929,
      "gada": 4930,
      "exten": 4931,
      "gica": 4932,
      "anywhere": 4933,
      "earlier": 4934,
      "gras": 4935,
      "grafo": 4936,
      "grew": 4937,
      "regis": 4938,
      "déis": 4939,
      "cambiado": 4940,
      "sisters": 4941,
      "acab": 4942,
      "vuelva": 4943,
      "realized": 4944,
      "llamado": 4945,
      "traducción": 4946,
      "windows": 4947,
      "entire": 4948,
      "cientos": 4949,
      "straight": 4950,
      "15": 4951,
      "stom": 4952,
      "enfad": 4953,
      "demand": 4954,
      "quin": 4955,
      "retras": 4956,
      "heat": 4957,
      "separ": 4958,
      "colo": 4959,
      "consegu": 4960,
      "mica": 4961,
      "bebi": 4962,
      "abor": 4963,
      "pez": 4964,
      "join": 4965,
      "pil": 4966,
      "within": 4967,
      "worst": 4968,
      "actor": 4969,
      "creía": 4970,
      "corbata": 4971,
      "llamo": 4972,
      "entamente": 4973,
      "opport": 4974,
      "charge": 4975,
      "resultó": 4976,
      "necesitan": 4977,
      "particular": 4978,
      "explained": 4979,
      "preocupes": 4980,
      "limpiar": 4981,
      "acostumbrado": 4982,
      "ejemplo": 4983,
      "propósito": 4984,
      "owe": 4985,
      "rab": 4986,
      "tantes": 4987,
      "argent": 4988,
      "dete": 4989,
      "requ": 4990,
      "refri": 4991,
      "hechos": 4992,
      "confer": 4993,
      "socie": 4994,
      "moto": 4995,
      "tuya": 4996,
      "terror": 4997,
      "iron": 4998,
      "hates": 4999,
      "parada": 5000,
      "casas": 5001,
      "oko": 5002,
      "precios": 5003,
      "discurso": 5004,
      "daré": 5005,
      "parecen": 5006,
      "genera": 5007,
      "norte": 5008,
      "llorando": 5009,
      "enseñar": 5010,
      "condition": 5011,
      "negocio": 5012,
      "negocios": 5013,
      "bathroom": 5014,
      "entrada": 5015,
      "soportar": 5016,
      "group": 5017,
      "guilty": 5018,
      "despacio": 5019,
      "achi": 5020,
      "bell": 5021,
      "gare": 5022,
      "ow": 5023,
      "ron": 5024,
      "round": 5025,
      "ruso": 5026,
      "zy": 5027,
      "teatro": 5028,
      "meters": 5029,
      "tains": 5030,
      "season": 5031,
      "cierta": 5032,
      "roto": 5033,
      "supi": 5034,
      "modo": 5035,
      "volar": 5036,
      "casarse": 5037,
      "feet": 5038,
      "vender": 5039,
      "alice": 5040,
      "tales": 5041,
      "juice": 5042,
      "apun": 5043,
      "dremos": 5044,
      "gaste": 5045,
      "alegr": 5046,
      "mundial": 5047,
      "haberlo": 5048,
      "mirar": 5049,
      "singer": 5050,
      "bigger": 5051,
      "raro": 5052,
      "smiled": 5053,
      "robó": 5054,
      "escuchando": 5055,
      "football": 5056,
      "museo": 5057,
      "museum": 5058,
      "programa": 5059,
      "celebra": 5060,
      "frecuencia": 5061,
      "espalda": 5062,
      "jando": 5063,
      "ácti": 5064,
      "revolu": 5065,
      "veía": 5066,
      "italy": 5067,
      "roof": 5068,
      "confes": 5069,
      "mago": 5070,
      "quito": 5071,
      "quilla": 5072,
      "paint": 5073,
      "pide": 5074,
      "preci": 5075,
      "prestar": 5076,
      "willing": 5077,
      "costu": 5078,
      "tale": 5079,
      "gram": 5080,
      "interpre": 5081,
      "planning": 5082,
      "engine": 5083,
      "mató": 5084,
      "sorpresa": 5085,
      "named": 5086,
      "juegos": 5087,
      "lights": 5088,
      "botón": 5089,
      "blanca": 5090,
      "wards": 5091,
      "education": 5092,
      "sorprendido": 5093,
      "güen": 5094,
      "culpable": 5095,
      "amistad": 5096,
      "cise": 5097,
      "pé": 5098,
      "yos": 5099,
      "dilla": 5100,
      "viviendo": 5101,
      "llá": 5102,
      "cancer": 5103,
      "dishes": 5104,
      "hayas": 5105,
      "breath": 5106,
      "presenta": 5107,
      "ils": 5108,
      "querría": 5109,
      "iones": 5110,
      "basket": 5111,
      "vuestro": 5112,
      "bedroom": 5113,
      "dressed": 5114,
      "realize": 5115,
      "japonesa": 5116,
      "japoneses": 5117,
      "clai": 5118,
      "example": 5119,
      "convertir": 5120,
      "tendrás": 5121,
      "encuentro": 5122,
      "laughing": 5123,
      "satisfied": 5124,
      "modern": 5125,
      "believes": 5126,
      "orange": 5127,
      "field": 5128,
      "página": 5129,
      "empresa": 5130,
      "theory": 5131,
      "iled": 5132,
      "ábamos": 5133,
      "ertas": 5134,
      "reach": 5135,
      "cami": 5136,
      "mido": 5137,
      "map": 5138,
      "negó": 5139,
      "cantante": 5140,
      "peter": 5141,
      "peces": 5142,
      "pobla": 5143,
      "picked": 5144,
      "nia": 5145,
      "gación": 5146,
      "gante": 5147,
      "ength": 5148,
      "bolí": 5149,
      "answered": 5150,
      "solución": 5151,
      "cansada": 5152,
      "subject": 5153,
      "oscuridad": 5154,
      "profundamente": 5155,
      "original": 5156,
      "teoría": 5157,
      "apu": 5158,
      "cera": 5159,
      "mn": 5160,
      "sports": 5161,
      "tía": 5162,
      "astron": 5163,
      "elos": 5164,
      "alqui": 5165,
      "theater": 5166,
      "madera": 5167,
      "sois": 5168,
      "sold": 5169,
      "size": 5170,
      "tencia": 5171,
      "irte": 5172,
      "podéis": 5173,
      "knowledge": 5174,
      "preocupado": 5175,
      "nose": 5176,
      "hadn": 5177,
      "bienven": 5178,
      "compraste": 5179,
      "roso": 5180,
      "period": 5181,
      "idiot": 5182,
      "rara": 5183,
      "preferiría": 5184,
      "pisto": 5185,
      "tendré": 5186,
      "gentle": 5187,
      "convencer": 5188,
      "pusi": 5189,
      "threw": 5190,
      "comportamiento": 5191,
      "bly": 5192,
      "bene": 5193,
      "cles": 5194,
      "ila": 5195,
      "lli": 5196,
      "unity": 5197,
      "hey": 5198,
      "sepa": 5199,
      "diario": 5200,
      "cabo": 5201,
      "cados": 5202,
      "caball": 5203,
      "vidu": 5204,
      "bajar": 5205,
      "faci": 5206,
      "mbus": 5207,
      "preocupa": 5208,
      "accu": 5209,
      "gives": 5210,
      "idas": 5211,
      "shel": 5212,
      "costs": 5213,
      "estudia": 5214,
      "cuerda": 5215,
      "keeps": 5216,
      "skir": 5217,
      "intención": 5218,
      "recibir": 5219,
      "director": 5220,
      "quiso": 5221,
      "individu": 5222,
      "averigu": 5223,
      "evil": 5224,
      "increí": 5225,
      "merece": 5226,
      "columbus": 5227,
      "saturday": 5228,
      "línea": 5229,
      "enorme": 5230,
      "mathematics": 5231,
      "carrera": 5232,
      "houses": 5233,
      "viernes": 5234,
      "garet": 5235,
      "gged": 5236,
      "oto": 5237,
      "ens": 5238,
      "arran": 5239,
      "ascen": 5240,
      "depar": 5241,
      "quise": 5242,
      "alger": 5243,
      "itself": 5244,
      "contribu": 5245,
      "mapa": 5246,
      "solar": 5247,
      "raise": 5248,
      "andar": 5249,
      "tened": 5250,
      "tenéis": 5251,
      "boda": 5252,
      "account": 5253,
      "giving": 5254,
      "nosotras": 5255,
      "corri": 5256,
      "corrió": 5257,
      "audi": 5258,
      "prize": 5259,
      "seguida": 5260,
      "harder": 5261,
      "bolsi": 5262,
      "tempor": 5263,
      "cture": 5264,
      "consciente": 5265,
      "considered": 5266,
      "piernas": 5267,
      "levantó": 5268,
      "memory": 5269,
      "empleados": 5270,
      "millones": 5271,
      "brazil": 5272,
      "enfadado": 5273,
      "employees": 5274,
      "acompañ": 5275,
      "adelante": 5276,
      "cár": 5277,
      "geli": 5278,
      "jour": 5279,
      "infin": 5280,
      "doce": 5281,
      "regi": 5282,
      "leí": 5283,
      "sientes": 5284,
      "mover": 5285,
      "neu": 5286,
      "tuviera": 5287,
      "provo": 5288,
      "casar": 5289,
      "cards": 5290,
      "missing": 5291,
      "placer": 5292,
      "comuni": 5293,
      "sintió": 5294,
      "respondió": 5295,
      "pintura": 5296,
      "tratando": 5297,
      "agradeci": 5298,
      "sorprendió": 5299,
      "absoluto": 5300,
      "embargo": 5301,
      "attack": 5302,
      "agreed": 5303,
      "picnic": 5304,
      "brush": 5305,
      "vecinos": 5306,
      "emergen": 5307,
      "sibility": 5308,
      "behavior": 5309,
      "14": 5310,
      "acu": 5311,
      "amen": 5312,
      "cino": 5313,
      "cras": 5314,
      "escondi": 5315,
      "aspe": 5316,
      "detail": 5317,
      "osas": 5318,
      "meta": 5319,
      "lean": 5320,
      "tomé": 5321,
      "tieron": 5322,
      "diet": 5323,
      "coma": 5324,
      "goal": 5325,
      "conser": 5326,
      "caused": 5327,
      "permit": 5328,
      "pata": 5329,
      "proper": 5330,
      "whis": 5331,
      "cerrada": 5332,
      "cari": 5333,
      "mister": 5334,
      "duras": 5335,
      "odía": 5336,
      "huge": 5337,
      "huele": 5338,
      "caminando": 5339,
      "ceder": 5340,
      "consigui": 5341,
      "colón": 5342,
      "pierna": 5343,
      "excepto": 5344,
      "tráfico": 5345,
      "gnant": 5346,
      "ejercicio": 5347,
      "25": 5348,
      "vá": 5349,
      "inos": 5350,
      "invol": 5351,
      "determin": 5352,
      "repi": 5353,
      "vivió": 5354,
      "hill": 5355,
      "bañ": 5356,
      "puse": 5357,
      "saved": 5358,
      "hero": 5359,
      "fría": 5360,
      "friday": 5361,
      "stuff": 5362,
      "betty": 5363,
      "obvious": 5364,
      "soldados": 5365,
      "risk": 5366,
      "arriba": 5367,
      "prisión": 5368,
      "secretar": 5369,
      "esposo": 5370,
      "pelota": 5371,
      "continue": 5372,
      "enjoyed": 5373,
      "vegetables": 5374,
      "defini": 5375,
      "cáncer": 5376,
      "competi": 5377,
      "crowd": 5378,
      "democra": 5379,
      "thief": 5380,
      "society": 5381,
      "nit": 5382,
      "twel": 5383,
      "vine": 5384,
      "vely": 5385,
      "ased": 5386,
      "alarm": 5387,
      "teme": 5388,
      "tian": 5389,
      "heada": 5390,
      "lia": 5391,
      "rested": 5392,
      "excel": 5393,
      "nation": 5394,
      "tarse": 5395,
      "preparado": 5396,
      "cheap": 5397,
      "zamos": 5398,
      "grab": 5399,
      "iling": 5400,
      "dores": 5401,
      "hablado": 5402,
      "hurts": 5403,
      "lenguaje": 5404,
      "confianza": 5405,
      "hicimos": 5406,
      "attend": 5407,
      "translated": 5408,
      "faith": 5409,
      "complain": 5410,
      "pleased": 5411,
      "conocimiento": 5412,
      "fighting": 5413,
      "alcanzar": 5414,
      "prometió": 5415,
      "nervioso": 5416,
      "soldiers": 5417,
      "avan": 5418,
      "sour": 5419,
      "wing": 5420,
      "dedos": 5421,
      "develo": 5422,
      "meal": 5423,
      "legal": 5424,
      "tomado": 5425,
      "tight": 5426,
      "cigaret": 5427,
      "vete": 5428,
      "vemos": 5429,
      "locked": 5430,
      "conne": 5431,
      "race": 5432,
      "neck": 5433,
      "bil": 5434,
      "ayú": 5435,
      "explan": 5436,
      "habéis": 5437,
      "sonó": 5438,
      "serpi": 5439,
      "darse": 5440,
      "whom": 5441,
      "apprecia": 5442,
      "nuevas": 5443,
      "querías": 5444,
      "escribiendo": 5445,
      "politici": 5446,
      "harv": 5447,
      "cuáles": 5448,
      "friendship": 5449,
      "rained": 5450,
      "embara": 5451,
      "resultados": 5452,
      "although": 5453,
      "flat": 5454,
      "despierto": 5455,
      "certainly": 5456,
      "distancia": 5457,
      "believed": 5458,
      "cuidar": 5459,
      "reserva": 5460,
      "servicio": 5461,
      "olvidado": 5462,
      "significado": 5463,
      "chat": 5464,
      "equal": 5465,
      "kio": 5466,
      "pér": 5467,
      "rele": 5468,
      "wit": 5469,
      "wers": 5470,
      "yeron": 5471,
      "ered": 5472,
      "latin": 5473,
      "cimiento": 5474,
      "sui": 5475,
      "hojas": 5476,
      "entero": 5477,
      "canta": 5478,
      "prove": 5479,
      "propos": 5480,
      "despedir": 5481,
      "excus": 5482,
      "casu": 5483,
      "pregnant": 5484,
      "corto": 5485,
      "ears": 5486,
      "broma": 5487,
      "monte": 5488,
      "dying": 5489,
      "conocen": 5490,
      "cultura": 5491,
      "rose": 5492,
      "geno": 5493,
      "siglo": 5494,
      "century": 5495,
      "intenté": 5496,
      "intentar": 5497,
      "cookies": 5498,
      "capacidad": 5499,
      "classroom": 5500,
      "steal": 5501,
      "enseñó": 5502,
      "aproxi": 5503,
      "estrella": 5504,
      "pantal": 5505,
      "innocent": 5506,
      "sociedad": 5507,
      "hobby": 5508,
      "matrimonio": 5509,
      "ai": 5510,
      "ahead": 5511,
      "heli": 5512,
      "ili": 5513,
      "plo": 5514,
      "anno": 5515,
      "asha": 5516,
      "doy": 5517,
      "doble": 5518,
      "uncia": 5519,
      "cito": 5520,
      "cogió": 5521,
      "confir": 5522,
      "millas": 5523,
      "tuvieron": 5524,
      "irá": 5525,
      "file": 5526,
      "nativo": 5527,
      "sonido": 5528,
      "distin": 5529,
      "etas": 5530,
      "tiempos": 5531,
      "turas": 5532,
      "funeral": 5533,
      "valu": 5534,
      "fondo": 5535,
      "pequeños": 5536,
      "quedarte": 5537,
      "fábri": 5538,
      "solution": 5539,
      "cruzar": 5540,
      "enojado": 5541,
      "painted": 5542,
      "antigu": 5543,
      "preocupar": 5544,
      "flying": 5545,
      "impresion": 5546,
      "yenes": 5547,
      "distance": 5548,
      "güenza": 5549,
      "cú": 5550,
      "encar": 5551,
      "entos": 5552,
      "encias": 5553,
      "onde": 5554,
      "depor": 5555,
      "quar": 5556,
      "tizen": 5557,
      "cilla": 5558,
      "citizen": 5559,
      "tress": 5560,
      "capit": 5561,
      "oferta": 5562,
      "mada": 5563,
      "howe": 5564,
      "sico": 5565,
      "paul": 5566,
      "propuesta": 5567,
      "nací": 5568,
      "mismos": 5569,
      "largest": 5570,
      "llevas": 5571,
      "ganado": 5572,
      "culture": 5573,
      "alegro": 5574,
      "basura": 5575,
      "opción": 5576,
      "handed": 5577,
      "ventanas": 5578,
      "interesado": 5579,
      "magn": 5580,
      "recibió": 5581,
      "planeta": 5582,
      "support": 5583,
      "begins": 5584,
      "ordered": 5585,
      "aunt": 5586,
      "electr": 5587,
      "enseña": 5588,
      "permite": 5589,
      "pleasure": 5590,
      "ónico": 5591,
      "vivido": 5592,
      "exercise": 5593,
      "carretera": 5594,
      "kioto": 5595,
      "however": 5596,
      "200": 5597,
      "bun": 5598,
      "brain": 5599,
      "oce": 5600,
      "entren": 5601,
      "dele": 5602,
      "eleph": 5603,
      "ala": 5604,
      "alous": 5605,
      "note": 5606,
      "tida": 5607,
      "quete": 5608,
      "separa": 5609,
      "atre": 5610,
      "civi": 5611,
      "tray": 5612,
      "constitu": 5613,
      "cabello": 5614,
      "supuesto": 5615,
      "site": 5616,
      "llar": 5617,
      "neo": 5618,
      "weak": 5619,
      "myster": 5620,
      "guen": 5621,
      "page": 5622,
      "desi": 5623,
      "desarro": 5624,
      "vote": 5625,
      "fired": 5626,
      "discovered": 5627,
      "corner": 5628,
      "ourselves": 5629,
      "zation": 5630,
      "suspe": 5631,
      "jeta": 5632,
      "judge": 5633,
      "conocía": 5634,
      "vosotras": 5635,
      "volverá": 5636,
      "results": 5637,
      "tratar": 5638,
      "contact": 5639,
      "galletas": 5640,
      "population": 5641,
      "seriously": 5642,
      "quizás": 5643,
      "disappointed": 5644,
      "sugges": 5645,
      "estómago": 5646,
      "search": 5647,
      "quince": 5648,
      "twelve": 5649,
      "ashamed": 5650,
      "ape": 5651,
      "cían": 5652,
      "ilet": 5653,
      "toilet": 5654,
      "deporte": 5655,
      "quitar": 5656,
      "tiles": 5657,
      "ingles": 5658,
      "absent": 5659,
      "cemos": 5660,
      "lly": 5661,
      "tenían": 5662,
      "pado": 5663,
      "pack": 5664,
      "nave": 5665,
      "hables": 5666,
      "songs": 5667,
      "derro": 5668,
      "wore": 5669,
      "pread": 5670,
      "prácti": 5671,
      "cortar": 5672,
      "hacerte": 5673,
      "humana": 5674,
      "cionar": 5675,
      "salvo": 5676,
      "goodbye": 5677,
      "elef": 5678,
      "calls": 5679,
      "calling": 5680,
      "teaching": 5681,
      "easier": 5682,
      "listened": 5683,
      "artículo": 5684,
      "third": 5685,
      "capable": 5686,
      "imagine": 5687,
      "notice": 5688,
      "south": 5689,
      "prepared": 5690,
      "failu": 5691,
      "conveni": 5692,
      "vegetar": 5693,
      "belongs": 5694,
      "esfuerzo": 5695,
      "barato": 5696,
      "nariz": 5697,
      "alumnos": 5698,
      "profess": 5699,
      "facilidad": 5700,
      "increíble": 5701,
      "bright": 5702,
      "eva": 5703,
      "lentes": 5704,
      "octo": 5705,
      "ular": 5706,
      "toki": 5707,
      "arms": 5708,
      "deba": 5709,
      "ciles": 5710,
      "cientes": 5711,
      "consul": 5712,
      "entera": 5713,
      "tery": 5714,
      "terremo": 5715,
      "canciones": 5716,
      "canada": 5717,
      "pool": 5718,
      "poison": 5719,
      "resis": 5720,
      "piel": 5721,
      "factory": 5722,
      "exha": 5723,
      "cash": 5724,
      "taro": 5725,
      "jacket": 5726,
      "entemente": 5727,
      "distra": 5728,
      "corta": 5729,
      "ours": 5730,
      "costó": 5731,
      "whoever": 5732,
      "pona": 5733,
      "juz": 5734,
      "juan": 5735,
      "conoció": 5736,
      "ayude": 5737,
      "elegir": 5738,
      "funda": 5739,
      "inocente": 5740,
      "cincuenta": 5741,
      "character": 5742,
      "complete": 5743,
      "llegará": 5744,
      "runs": 5745,
      "extraña": 5746,
      "writer": 5747,
      "freedom": 5748,
      "visita": 5749,
      "visible": 5750,
      "protect": 5751,
      "oscuro": 5752,
      "invitar": 5753,
      "italiano": 5754,
      "descanso": 5755,
      "comienzo": 5756,
      "duerme": 5757,
      "multitud": 5758,
      "criminal": 5759,
      "naranja": 5760,
      "resfriado": 5761,
      "relationship": 5762,
      "professor": 5763,
      "13": 5764,
      "avis": 5765,
      "mely": 5766,
      "ocas": 5767,
      "ented": 5768,
      "inado": 5769,
      "dedo": 5770,
      "lack": 5771,
      "revista": 5772,
      "metal": 5773,
      "tito": 5774,
      "queen": 5775,
      "cida": 5776,
      "roma": 5777,
      "caer": 5778,
      "cable": 5779,
      "lip": 5780,
      "limi": 5781,
      "abdu": 5782,
      "vivimos": 5783,
      "adá": 5784,
      "hid": 5785,
      "mbri": 5786,
      "rang": 5787,
      "plato": 5788,
      "hacerme": 5789,
      "nur": 5790,
      "nubes": 5791,
      "stories": 5792,
      "esperado": 5793,
      "clever": 5794,
      "truck": 5795,
      "harm": 5796,
      "harto": 5797,
      "vuelo": 5798,
      "north": 5799,
      "sooner": 5800,
      "explo": 5801,
      "explos": 5802,
      "center": 5803,
      "salido": 5804,
      "objetivo": 5805,
      "afortunadamente": 5806,
      "permiso": 5807,
      "pertenece": 5808,
      "material": 5809,
      "trampa": 5810,
      "física": 5811,
      "población": 5812,
      "bs": 5813,
      "gy": 5814,
      "oi": 5815,
      "selo": 5816,
      "tis": 5817,
      "wol": 5818,
      "wound": 5819,
      "enfr": 5820,
      "ordin": 5821,
      "timos": 5822,
      "atas": 5823,
      "attemp": 5824,
      "copy": 5825,
      "usando": 5826,
      "confu": 5827,
      "riage": 5828,
      "canadá": 5829,
      "cerró": 5830,
      "tará": 5831,
      "dispar": 5832,
      "ends": 5833,
      "impa": 5834,
      "speci": 5835,
      "cómodo": 5836,
      "lished": 5837,
      "diré": 5838,
      "acabar": 5839,
      "doors": 5840,
      "encantan": 5841,
      "spir": 5842,
      "agrada": 5843,
      "clearly": 5844,
      "poem": 5845,
      "mostró": 5846,
      "greek": 5847,
      "discutir": 5848,
      "energy": 5849,
      "sábado": 5850,
      "magazine": 5851,
      "consiguió": 5852,
      "headache": 5853,
      "casualidad": 5854,
      "eventu": 5855,
      "gall": 5856,
      "ive": 5857,
      "rando": 5858,
      "decor": 5859,
      "deje": 5860,
      "tomando": 5861,
      "dito": 5862,
      "vecino": 5863,
      "usias": 5864,
      "suyo": 5865,
      "marriage": 5866,
      "forced": 5867,
      "murieron": 5868,
      "addi": 5869,
      "cante": 5870,
      "cantidad": 5871,
      "pet": 5872,
      "mani": 5873,
      "fie": 5874,
      "tience": 5875,
      "sonrió": 5876,
      "cast": 5877,
      "prestado": 5878,
      "mintiendo": 5879,
      "duty": 5880,
      "guste": 5881,
      "darle": 5882,
      "salvar": 5883,
      "mono": 5884,
      "interrup": 5885,
      "dieta": 5886,
      "stuck": 5887,
      "mentar": 5888,
      "apli": 5889,
      "teaches": 5890,
      "teachers": 5891,
      "hablamos": 5892,
      "ctiva": 5893,
      "sang": 5894,
      "abandonó": 5895,
      "burn": 5896,
      "derechos": 5897,
      "avergon": 5898,
      "sofá": 5899,
      "midnight": 5900,
      "smells": 5901,
      "inmediato": 5902,
      "cerebro": 5903,
      "sucedió": 5904,
      "adecu": 5905,
      "injured": 5906,
      "bolígrafo": 5907,
      "otoño": 5908,
      "pantalones": 5909,
      "email": 5910,
      "ners": 5911,
      "rin": 5912,
      "ése": 5913,
      "arrested": 5914,
      "lazy": 5915,
      "meant": 5916,
      "diera": 5917,
      "dicos": 5918,
      "ites": 5919,
      "usión": 5920,
      "const": 5921,
      "camente": 5922,
      "ables": 5923,
      "absor": 5924,
      "wich": 5925,
      "quie": 5926,
      "herido": 5927,
      "fuck": 5928,
      "shit": 5929,
      "casada": 5930,
      "gracia": 5931,
      "jealous": 5932,
      "interru": 5933,
      "pregunté": 5934,
      "changes": 5935,
      "vuestra": 5936,
      "buying": 5937,
      "hang": 5938,
      "pasamos": 5939,
      "entendido": 5940,
      "vayamos": 5941,
      "fácilmente": 5942,
      "dropped": 5943,
      "supermercado": 5944,
      "extranjeros": 5945,
      "followed": 5946,
      "fingers": 5947,
      "quitó": 5948,
      "echó": 5949,
      "silence": 5950,
      "push": 5951,
      "fixed": 5952,
      "fifty": 5953,
      "advantage": 5954,
      "energía": 5955,
      "gratis": 5956,
      "industri": 5957,
      "potatoes": 5958,
      "stomach": 5959,
      "opportunity": 5960,
      "cárcel": 5961,
      "involved": 5962,
      "explanation": 5963,
      "500": 5964,
      "ava": 5965,
      "apagar": 5966,
      "bis": 5967,
      "ku": 5968,
      "kne": 5969,
      "spread": 5970,
      "arab": 5971,
      "demon": 5972,
      "refer": 5973,
      "meth": 5974,
      "diab": 5975,
      "chor": 5976,
      "cuesti": 5977,
      "bey": 5978,
      "rados": 5979,
      "formas": 5980,
      "perhap": 5981,
      "tenías": 5982,
      "cans": 5983,
      "patience": 5984,
      "desapare": 5985,
      "fever": 5986,
      "tortu": 5987,
      "suspi": 5988,
      "cried": 5989,
      "champ": 5990,
      "pareja": 5991,
      "inevi": 5992,
      "matters": 5993,
      "medianoche": 5994,
      "starting": 5995,
      "fascin": 5996,
      "responsible": 5997,
      "lonely": 5998,
      "arena": 5999,
      "plantas": 6000,
      "cír": 6001,
      "drown": 6002,
      "explicación": 6003,
      "supermarket": 6004,
      "memori": 6005,
      "forgotten": 6006,
      "manejar": 6007,
      "escapar": 6008,
      "hazlo": 6009,
      "complaining": 6010,
      "remain": 6011,
      "fifteen": 6012,
      "voluntar": 6013,
      "comprender": 6014,
      "accepted": 6015,
      "algeria": 6016,
      "embarazada": 6017,
      "fiebre": 6018,
      "cuestión": 6019,
      "perhaps": 6020,
      "abe": 6021,
      "dal": 6022,
      "éc": 6023,
      "ísti": 6024,
      "thro": 6025,
      "quedan": 6026,
      "coches": 6027,
      "lock": 6028,
      "mier": 6029,
      "ricos": 6030,
      "superi": 6031,
      "entend": 6032,
      "promesa": 6033,
      "carried": 6034,
      "compro": 6035,
      "shy": 6036,
      "speed": 6037,
      "friendly": 6038,
      "tooth": 6039,
      "mates": 6040,
      "managed": 6041,
      "gence": 6042,
      "cambió": 6043,
      "piensan": 6044,
      "últimos": 6045,
      "computers": 6046,
      "invite": 6047,
      "artist": 6048,
      "reality": 6049,
      "nearly": 6050,
      "pointment": 6051,
      "poema": 6052,
      "inteligencia": 6053,
      "proteger": 6054,
      "fresco": 6055,
      "ugly": 6056,
      "aprove": 6057,
      "neighbors": 6058,
      "responsable": 6059,
      "desayunar": 6060,
      "proposal": 6061,
      "failure": 6062,
      "ax": 6063,
      "bran": 6064,
      "ió": 6065,
      "jera": 6066,
      "stan": 6067,
      "sche": 6068,
      "tch": 6069,
      "esqui": 6070,
      "entro": 6071,
      "angel": 6072,
      "inó": 6073,
      "infe": 6074,
      "alu": 6075,
      "labor": 6076,
      "reina": 6077,
      "members": 6078,
      "quejar": 6079,
      "colon": 6080,
      "consis": 6081,
      "cuello": 6082,
      "major": 6083,
      "moda": 6084,
      "mood": 6085,
      "mum": 6086,
      "cantando": 6087,
      "pocket": 6088,
      "pull": 6089,
      "trae": 6090,
      "trato": 6091,
      "furi": 6092,
      "accomp": 6093,
      "llegamos": 6094,
      "grass": 6095,
      "éndo": 6096,
      "grado": 6097,
      "sales": 6098,
      "tastes": 6099,
      "importar": 6100,
      "pasaporte": 6101,
      "wondered": 6102,
      "imagina": 6103,
      "weapon": 6104,
      "iremos": 6105,
      "despertar": 6106,
      "apari": 6107,
      "discusión": 6108,
      "escaleras": 6109,
      "emocion": 6110,
      "celebr": 6111,
      "temperature": 6112,
      "destino": 6113,
      "prohibido": 6114,
      "robaron": 6115,
      "distinguir": 6116,
      "incendio": 6117,
      "ocean": 6118,
      "civili": 6119,
      "mierda": 6120,
      "beso": 6121,
      "flight": 6122,
      "jones": 6123,
      "món": 6124,
      "escla": 6125,
      "tome": 6126,
      "arruin": 6127,
      "infan": 6128,
      "asia": 6129,
      "asure": 6130,
      "depres": 6131,
      "decía": 6132,
      "tire": 6133,
      "robo": 6134,
      "vers": 6135,
      "veré": 6136,
      "mame": 6137,
      "viva": 6138,
      "raised": 6139,
      "wealth": 6140,
      "washed": 6141,
      "bia": 6142,
      "bite": 6143,
      "nivel": 6144,
      "cerdo": 6145,
      "cercan": 6146,
      "castle": 6147,
      "ders": 6148,
      "vende": 6149,
      "mission": 6150,
      "created": 6151,
      "oló": 6152,
      "dispon": 6153,
      "communi": 6154,
      "cometer": 6155,
      "graph": 6156,
      "workers": 6157,
      "salva": 6158,
      "wherever": 6159,
      "ctores": 6160,
      "haberme": 6161,
      "jeras": 6162,
      "señal": 6163,
      "amaba": 6164,
      "fond": 6165,
      "199": 6166,
      "cré": 6167,
      "passport": 6168,
      "egg": 6169,
      "riesgo": 6170,
      "occur": 6171,
      "scient": 6172,
      "fortune": 6173,
      "practice": 6174,
      "temperatura": 6175,
      "international": 6176,
      "convince": 6177,
      "enemigos": 6178,
      "excelente": 6179,
      "pérdida": 6180,
      "blow": 6181,
      "ctar": 6182,
      "dá": 6183,
      "juni": 6184,
      "estri": 6185,
      "argeli": 6186,
      "depri": 6187,
      "repor": 6188,
      "ingres": 6189,
      "secu": 6190,
      "dillas": 6191,
      "ité": 6192,
      "roe": 6193,
      "contest": 6194,
      "conciencia": 6195,
      "lio": 6196,
      "vergüenza": 6197,
      "losop": 6198,
      "moving": 6199,
      "excell": 6200,
      "trajo": 6201,
      "amoun": 6202,
      "precis": 6203,
      "dumb": 6204,
      "hacerse": 6205,
      "darte": 6206,
      "unifor": 6207,
      "afford": 6208,
      "studies": 6209,
      "deni": 6210,
      "speaker": 6211,
      "necesidad": 6212,
      "rights": 6213,
      "tically": 6214,
      "musical": 6215,
      "respeto": 6216,
      "plants": 6217,
      "artista": 6218,
      "examination": 6219,
      "perfectly": 6220,
      "neighborhood": 6221,
      "article": 6222,
      "extremely": 6223,
      "romper": 6224,
      "conversación": 6225,
      "philosop": 6226,
      "curios": 6227,
      "clouds": 6228,
      "satisfecho": 6229,
      "argelia": 6230,
      "17": 6231,
      "ame": 6232,
      "flies": 6233,
      "hall": 6234,
      "tue": 6235,
      "yard": 6236,
      "lados": 6237,
      "retir": 6238,
      "reciente": 6239,
      "tible": 6240,
      "chis": 6241,
      "homb": 6242,
      "weir": 6243,
      "mention": 6244,
      "guest": 6245,
      "bajó": 6246,
      "bud": 6247,
      "tarjeta": 6248,
      "minds": 6249,
      "luces": 6250,
      "decidir": 6251,
      "stamp": 6252,
      "helps": 6253,
      "esperamos": 6254,
      "eleva": 6255,
      "contrat": 6256,
      "banda": 6257,
      "escribí": 6258,
      "fashi": 6259,
      "mirror": 6260,
      "aprendido": 6261,
      "besó": 6262,
      "correos": 6263,
      "pronoun": 6264,
      "false": 6265,
      "quedado": 6266,
      "strength": 6267,
      "trabajadores": 6268,
      "keyboard": 6269,
      "shakes": 6270,
      "violence": 6271,
      "escuchó": 6272,
      "huevo": 6273,
      "crisis": 6274,
      "pleasant": 6275,
      "caballos": 6276,
      "dulces": 6277,
      "embarras": 6278,
      "conversation": 6279,
      "central": 6280,
      "camión": 6281,
      "accused": 6282,
      "fábrica": 6283,
      "16": 6284,
      "adel": 6285,
      "fence": 6286,
      "hé": 6287,
      "hen": 6288,
      "honey": 6289,
      "pants": 6290,
      "scor": 6291,
      "zor": 6292,
      "unless": 6293,
      "tima": 6294,
      "robado": 6295,
      "conden": 6296,
      "sién": 6297,
      "losing": 6298,
      "force": 6299,
      "peel": 6300,
      "pollo": 6301,
      "promo": 6302,
      "nico": 6303,
      "nación": 6304,
      "pros": 6305,
      "crew": 6306,
      "ducha": 6307,
      "disco": 6308,
      "cortó": 6309,
      "commen": 6310,
      "impu": 6311,
      "susan": 6312,
      "iló": 6313,
      "sencilla": 6314,
      "ctoria": 6315,
      "dancing": 6316,
      "ciudades": 6317,
      "telef": 6318,
      "podríamos": 6319,
      "invitados": 6320,
      "humanidad": 6321,
      "violencia": 6322,
      "discuss": 6323,
      "famosa": 6324,
      "deserve": 6325,
      "pretended": 6326,
      "quake": 6327,
      "appreciate": 6328,
      "excellent": 6329,
      "\"¡": 6330,
      "cesto": 6331,
      "tun": 6332,
      "dece": 6333,
      "eléc": 6334,
      "repair": 6335,
      "ridi": 6336,
      "resemb": 6337,
      "pues": 6338,
      "desnu": 6339,
      "fuma": 6340,
      "jazz": 6341,
      "accus": 6342,
      "someday": 6343,
      "sabido": 6344,
      "suspen": 6345,
      "chaqueta": 6346,
      "private": 6347,
      "queréis": 6348,
      "opti": 6349,
      "bolso": 6350,
      "hearing": 6351,
      "survi": 6352,
      "llegaron": 6353,
      "intenta": 6354,
      "abandonado": 6355,
      "psy": 6356,
      "explicó": 6357,
      "earthquake": 6358,
      "bandera": 6359,
      "asesina": 6360,
      "hagamos": 6361,
      "flag": 6362,
      "amari": 6363,
      "molesta": 6364,
      "dormitorio": 6365,
      "contestar": 6366,
      "admitted": 6367,
      "ísimo": 6368,
      "unciar": 6369,
      "importancia": 6370,
      "imagen": 6371,
      "limpia": 6372,
      "acabó": 6373,
      "request": 6374,
      "llámame": 6375,
      "ilable": 6376,
      "eventually": 6377,
      "eléctri": 6378,
      "11": 6379,
      "amp": 6380,
      "además": 6381,
      "brió": 6382,
      "cd": 6383,
      "cías": 6384,
      "eved": 6385,
      "kore": 6386,
      "octu": 6387,
      "tina": 6388,
      "esquina": 6389,
      "tot": 6390,
      "anillo": 6391,
      "deu": 6392,
      "león": 6393,
      "dicta": 6394,
      "cities": 6395,
      "concl": 6396,
      "culos": 6397,
      "subió": 6398,
      "estable": 6399,
      "peare": 6400,
      "manda": 6401,
      "bul": 6402,
      "pian": 6403,
      "amas": 6404,
      "dudo": 6405,
      "gia": 6406,
      "dispuesto": 6407,
      "commun": 6408,
      "bert": 6409,
      "autor": 6410,
      "ponga": 6411,
      "parecer": 6412,
      "mañanas": 6413,
      "dora": 6414,
      "medica": 6415,
      "alegra": 6416,
      "insis": 6417,
      "íste": 6418,
      "viejos": 6419,
      "understanding": 6420,
      "handsome": 6421,
      "diría": 6422,
      "acabado": 6423,
      "greatest": 6424,
      "leyó": 6425,
      "produce": 6426,
      "depends": 6427,
      "americans": 6428,
      "effort": 6429,
      "pedirle": 6430,
      "illness": 6431,
      "recoger": 6432,
      "silent": 6433,
      "mountains": 6434,
      "esconder": 6435,
      "repeat": 6436,
      "maleta": 6437,
      "foolish": 6438,
      "convinced": 6439,
      "justicia": 6440,
      "levanta": 6441,
      "teclado": 6442,
      "castillo": 6443,
      "mantequilla": 6444,
      "license": 6445,
      "introduce": 6446,
      "materna": 6447,
      "muñeca": 6448,
      "october": 6449,
      "denied": 6450,
      "shakespeare": 6451,
      "octubre": 6452,
      "dare": 6453,
      "eme": 6454,
      "fli": 6455,
      "ib": 6456,
      "igh": 6457,
      "nel": 6458,
      "rón": 6459,
      "sport": 6460,
      "screen": 6461,
      "ático": 6462,
      "enced": 6463,
      "anger": 6464,
      "institu": 6465,
      "detall": 6466,
      "hecha": 6467,
      "diag": 6468,
      "cock": 6469,
      "concen": 6470,
      "ofi": 6471,
      "hole": 6472,
      "marca": 6473,
      "fornia": 6474,
      "jokes": 6475,
      "bum": 6476,
      "descar": 6477,
      "gather": 6478,
      "telo": 6479,
      "credi": 6480,
      "lance": 6481,
      "ángel": 6482,
      "everywhere": 6483,
      "breathe": 6484,
      "calce": 6485,
      "nuclear": 6486,
      "malas": 6487,
      "estupen": 6488,
      "affe": 6489,
      "seldom": 6490,
      "answers": 6491,
      "rude": 6492,
      "turno": 6493,
      "querido": 6494,
      "diós": 6495,
      "sensi": 6496,
      "barely": 6497,
      "mediodía": 6498,
      "treated": 6499,
      "hablaba": 6500,
      "empezado": 6501,
      "completo": 6502,
      "value": 6503,
      "colores": 6504,
      "198": 6505,
      "saludable": 6506,
      "california": 6507,
      "señora": 6508,
      "sweater": 6509,
      "condiciones": 6510,
      "probó": 6511,
      "stronger": 6512,
      "escuché": 6513,
      "enviar": 6514,
      "receive": 6515,
      "encontramos": 6516,
      "program": 6517,
      "golpeó": 6518,
      "intelligence": 6519,
      "vienes": 6520,
      "vienen": 6521,
      "enemies": 6522,
      "ratón": 6523,
      "billetera": 6524,
      "improve": 6525,
      "genial": 6526,
      "cubierta": 6527,
      "aprendí": 6528,
      "hábito": 6529,
      "skirt": 6530,
      "bolsillo": 6531,
      "nurse": 6532,
      "beyond": 6533,
      "inevitable": 6534,
      "aho": 6535,
      "apri": 6536,
      "adiós": 6537,
      "lando": 6538,
      "oyó": 6539,
      "vity": 6540,
      "arr": 6541,
      "det": 6542,
      "deaf": 6543,
      "caí": 6544,
      "cuén": 6545,
      "betray": 6546,
      "estre": 6547,
      "forts": 6548,
      "wild": 6549,
      "muestra": 6550,
      "ires": 6551,
      "areas": 6552,
      "path": 6553,
      "respir": 6554,
      "herida": 6555,
      "naked": 6556,
      "national": 6557,
      "cargo": 6558,
      "okay": 6559,
      "prepare": 6560,
      "places": 6561,
      "drug": 6562,
      "cionó": 6563,
      "necesitar": 6564,
      "jud": 6565,
      "primo": 6566,
      "fox": 6567,
      "seguido": 6568,
      "contrario": 6569,
      "escritor": 6570,
      "pronuncia": 6571,
      "mayores": 6572,
      "kinds": 6573,
      "pintar": 6574,
      "abandonar": 6575,
      "laws": 6576,
      "cuarenta": 6577,
      "generally": 6578,
      "fracaso": 6579,
      "efforts": 6580,
      "mandar": 6581,
      "softw": 6582,
      "océ": 6583,
      "velocidad": 6584,
      "vacía": 6585,
      "disculpe": 6586,
      "llueva": 6587,
      "sharp": 6588,
      "thomas": 6589,
      "miembros": 6590,
      "supiera": 6591,
      "caballero": 6592,
      "weird": 6593,
      "software": 6594,
      "apre": 6595,
      "eta": 6596,
      "fy": 6597,
      "jón": 6598,
      "lentamente": 6599,
      "mouse": 6600,
      "oli": 6601,
      "pity": 6602,
      "army": 6603,
      "istic": 6604,
      "elas": 6605,
      "tades": 6606,
      "tivas": 6607,
      "dada": 6608,
      "eds": 6609,
      "bebiendo": 6610,
      "maestra": 6611,
      "socks": 6612,
      "tendremos": 6613,
      "candida": 6614,
      "antly": 6615,
      "respuestas": 6616,
      "fail": 6617,
      "didas": 6618,
      "tanta": 6619,
      "action": 6620,
      "horses": 6621,
      "anyway": 6622,
      "correspon": 6623,
      "brome": 6624,
      "autos": 6625,
      "decidí": 6626,
      "bienvenido": 6627,
      "buses": 6628,
      "dinos": 6629,
      "eleven": 6630,
      "liter": 6631,
      "political": 6632,
      "ciales": 6633,
      "posibilidad": 6634,
      "farm": 6635,
      "explor": 6636,
      "profesores": 6637,
      "televisor": 6638,
      "difficulty": 6639,
      "highly": 6640,
      "humans": 6641,
      "drogas": 6642,
      "compañeros": 6643,
      "antigua": 6644,
      "espejo": 6645,
      "chicago": 6646,
      "confli": 6647,
      "ciego": 6648,
      "gordo": 6649,
      "express": 6650,
      "deeply": 6651,
      "extremadamente": 6652,
      "brazos": 6653,
      "furnit": 6654,
      "pensado": 6655,
      "comienza": 6656,
      "cuadro": 6657,
      "prohibi": 6658,
      "simply": 6659,
      "holiday": 6660,
      "ingenu": 6661,
      "disease": 6662,
      "portuguese": 6663,
      "composi": 6664,
      "solici": 6665,
      "costumbre": 6666,
      "available": 6667,
      "method": 6668,
      "fashion": 6669,
      "detalles": 6670,
      "furniture": 6671,
      "avent": 6672,
      "awake": 6673,
      "dale": 6674,
      "evolu": 6675,
      "tles": 6676,
      "zer": 6677,
      "ñó": 6678,
      "armas": 6679,
      "arrest": 6680,
      "ane": 6681,
      "recomen": 6682,
      "recommen": 6683,
      "mexico": 6684,
      "tama": 6685,
      "tives": 6686,
      "itter": 6687,
      "absur": 6688,
      "forty": 6689,
      "negra": 6690,
      "peda": 6691,
      "bios": 6692,
      "trate": 6693,
      "derra": 6694,
      "compra": 6695,
      "ambu": 6696,
      "poniendo": 6697,
      "jugo": 6698,
      "pareció": 6699,
      "culpar": 6700,
      "querer": 6701,
      "hacemos": 6702,
      "sensa": 6703,
      "dormí": 6704,
      "tóbal": 6705,
      "childhood": 6706,
      "podrá": 6707,
      "burned": 6708,
      "cooked": 6709,
      "lindo": 6710,
      "llamaré": 6711,
      "cristóbal": 6712,
      "político": 6713,
      "montañas": 6714,
      "religion": 6715,
      "remained": 6716,
      "suitcase": 6717,
      "sirve": 6718,
      "voluntad": 6719,
      "informe": 6720,
      "internacional": 6721,
      "repent": 6722,
      "agradecer": 6723,
      "terremoto": 6724,
      "event": 6725,
      "mone": 6726,
      "scot": 6727,
      "úrate": 6728,
      "lately": 6729,
      "level": 6730,
      "seme": 6731,
      "cher": 6732,
      "choso": 6733,
      "convirtió": 6734,
      "solos": 6735,
      "vidas": 6736,
      "tues": 6737,
      "pop": 6738,
      "saving": 6739,
      "gage": 6740,
      "yourselves": 6741,
      "names": 6742,
      "habías": 6743,
      "seres": 6744,
      "autori": 6745,
      "triun": 6746,
      "helping": 6747,
      "estarás": 6748,
      "players": 6749,
      "regla": 6750,
      "classes": 6751,
      "termina": 6752,
      "saberlo": 6753,
      "perfectamente": 6754,
      "ciosa": 6755,
      "colina": 6756,
      "falling": 6757,
      "appears": 6758,
      "conocemos": 6759,
      "absolutamente": 6760,
      "cristi": 6761,
      "opera": 6762,
      "gonna": 6763,
      "twitter": 6764,
      "profundo": 6765,
      "religión": 6766,
      "esfuerzos": 6767,
      "destroyed": 6768,
      "excited": 6769,
      "alterna": 6770,
      "refrigera": 6771,
      "pistola": 6772,
      "averiguar": 6773,
      "ascensor": 6774,
      "40": 6775,
      "apla": 6776,
      "cter": 6777,
      "ecu": 6778,
      "emba": 6779,
      "ite": 6780,
      "ick": 6781,
      "ky": 6782,
      "lou": 6783,
      "anterior": 6784,
      "indis": 6785,
      "alp": 6786,
      "lav": 6787,
      "recur": 6788,
      "didos": 6789,
      "cobar": 6790,
      "data": 6791,
      "conó": 6792,
      "mix": 6793,
      "mico": 6794,
      "cuyo": 6795,
      "rique": 6796,
      "verduras": 6797,
      "vita": 6798,
      "viet": 6799,
      "rap": 6800,
      "wide": 6801,
      "aller": 6802,
      "pobres": 6803,
      "bomba": 6804,
      "patio": 6805,
      "ástico": 6806,
      "knowing": 6807,
      "pregún": 6808,
      "mina": 6809,
      "passen": 6810,
      "lesson": 6811,
      "torre": 6812,
      "fines": 6813,
      "grados": 6814,
      "trabajó": 6815,
      "rub": 6816,
      "querían": 6817,
      "importantes": 6818,
      "gasol": 6819,
      "rosas": 6820,
      "razon": 6821,
      "mática": 6822,
      "lugares": 6823,
      "hablé": 6824,
      "conductor": 6825,
      "recibido": 6826,
      "bottom": 6827,
      "poeta": 6828,
      "abierto": 6829,
      "tivamente": 6830,
      "novelas": 6831,
      "apartamento": 6832,
      "heaven": 6833,
      "topher": 6834,
      "describe": 6835,
      "woods": 6836,
      "economía": 6837,
      "christopher": 6838,
      "suicide": 6839,
      "tranquilo": 6840,
      "justice": 6841,
      "regard": 6842,
      "cumplir": 6843,
      "maravilloso": 6844,
      "emily": 6845,
      "drugs": 6846,
      "superior": 6847,
      "aves": 6848,
      "gg": 6849,
      "mt": 6850,
      "ples": 6851,
      "slight": 6852,
      "uko": 6853,
      "wis": 6854,
      "toy": 6855,
      "toso": 6856,
      "armario": 6857,
      "involu": 6858,
      "delo": 6859,
      "alarma": 6860,
      "nois": 6861,
      "metió": 6862,
      "letra": 6863,
      "sean": 6864,
      "cieron": 6865,
      "daba": 6866,
      "loca": 6867,
      "goo": 6868,
      "mila": 6869,
      "ofen": 6870,
      "bile": 6871,
      "bole": 6872,
      "proces": 6873,
      "sacri": 6874,
      "niñas": 6875,
      "ficos": 6876,
      "cases": 6877,
      "jail": 6878,
      "miser": 6879,
      "corte": 6880,
      "dará": 6881,
      "llamé": 6882,
      "calcula": 6883,
      "huel": 6884,
      "grate": 6885,
      "estuvi": 6886,
      "jui": 6887,
      "appointment": 6888,
      "genes": 6889,
      "politics": 6890,
      "sings": 6891,
      "virus": 6892,
      "cambia": 6893,
      "remedio": 6894,
      "biggest": 6895,
      "méxico": 6896,
      "circu": 6897,
      "muchacha": 6898,
      "brave": 6899,
      "capaces": 6900,
      "197": 6901,
      "hubiese": 6902,
      "crat": 6903,
      "piscina": 6904,
      "thirsty": 6905,
      "mirada": 6906,
      "tendría": 6907,
      "fallen": 6908,
      "debía": 6909,
      "ponerse": 6910,
      "tomato": 6911,
      "successful": 6912,
      "expecting": 6913,
      "obey": 6914,
      "regalos": 6915,
      "square": 6916,
      "tecno": 6917,
      "committed": 6918,
      "titude": 6919,
      "scene": 6920,
      "shelf": 6921,
      "departamento": 6922,
      ",\"": 6923,
      "aman": 6924,
      "econó": 6925,
      "imos": 6926,
      "kiló": 6927,
      "scream": 6928,
      "ures": 6929,
      "west": 6930,
      "época": 6931,
      "escena": 6932,
      "envir": 6933,
      "tough": 6934,
      "ancia": 6935,
      "inver": 6936,
      "inna": 6937,
      "detener": 6938,
      "noble": 6939,
      "tear": 6940,
      "hambri": 6941,
      "taciones": 6942,
      "tillo": 6943,
      "hebre": 6944,
      "edas": 6945,
      "lida": 6946,
      "solas": 6947,
      "vigi": 6948,
      "pup": 6949,
      "voted": 6950,
      "cartera": 6951,
      "prepara": 6952,
      "acto": 6953,
      "misión": 6954,
      "horiz": 6955,
      "disgus": 6956,
      "disappeared": 6957,
      "costa": 6958,
      "llame": 6959,
      "calma": 6960,
      "salary": 6961,
      "pondr": 6962,
      "estuviste": 6963,
      "prices": 6964,
      "escucho": 6965,
      "granja": 6966,
      "medida": 6967,
      "obtener": 6968,
      "harías": 6969,
      "adap": 6970,
      "empezando": 6971,
      "intend": 6972,
      "intento": 6973,
      "writes": 6974,
      "tallest": 6975,
      "hubieras": 6976,
      "desea": 6977,
      "actuar": 6978,
      "atraves": 6979,
      "following": 6980,
      "agreement": 6981,
      "estilo": 6982,
      "ceremon": 6983,
      "offered": 6984,
      "mentiroso": 6985,
      "escuchado": 6986,
      "ejér": 6987,
      "attacked": 6988,
      "russia": 6989,
      "complicated": 6990,
      "ocultar": 6991,
      "oranges": 6992,
      "naranjas": 6993,
      "climbed": 6994,
      "jumped": 6995,
      "style": 6996,
      "estadounidense": 6997,
      "latín": 6998,
      "techno": 6999,
      "elevator": 7000,
      "kilómetros": 7001,
      "environ": 7002,
      "aper": 7003,
      "cough": 7004,
      "echo": 7005,
      "phe": 7006,
      "pere": 7007,
      "sink": 7008,
      "área": 7009,
      "envió": 7010,
      "tocando": 7011,
      "altos": 7012,
      "requi": 7013,
      "lemon": 7014,
      "cafe": 7015,
      "lidades": 7016,
      "mienta": 7017,
      "abun": 7018,
      "vid": 7019,
      "adentro": 7020,
      "menes": 7021,
      "podido": 7022,
      "geo": 7023,
      "pical": 7024,
      "ficar": 7025,
      "miste": 7026,
      "placed": 7027,
      "interés": 7028,
      "gotten": 7029,
      "sele": 7030,
      "cultur": 7031,
      "election": 7032,
      "elección": 7033,
      "ocupados": 7034,
      "stands": 7035,
      "azu": 7036,
      "americano": 7037,
      "calidad": 7038,
      "spends": 7039,
      "stranger": 7040,
      "kobe": 7041,
      "descubrió": 7042,
      "rusia": 7043,
      "anciana": 7044,
      "collect": 7045,
      "desert": 7046,
      "invented": 7047,
      "succeeded": 7048,
      "yumi": 7049,
      "crossed": 7050,
      "polvo": 7051,
      "estadounidenses": 7052,
      "cigarri": 7053,
      "brillante": 7054,
      "gentleman": 7055,
      "electrónico": 7056,
      "océano": 7057,
      "?!": 7058,
      "apres": 7059,
      "africa": 7060,
      "bá": 7061,
      "eur": 7062,
      "gados": 7063,
      "iko": 7064,
      "sán": 7065,
      "ética": 7066,
      "thin": 7067,
      "ang": 7068,
      "inútil": 7069,
      "lada": 7070,
      "leyes": 7071,
      "coge": 7072,
      "datos": 7073,
      "load": 7074,
      "roll": 7075,
      "convi": 7076,
      "conce": 7077,
      "suya": 7078,
      "mare": 7079,
      "loss": 7080,
      "tuvi": 7081,
      "pedido": 7082,
      "menú": 7083,
      "manten": 7084,
      "bote": 7085,
      "buried": 7086,
      "facts": 7087,
      "tratado": 7088,
      "creí": 7089,
      "seré": 7090,
      "serás": 7091,
      "chief": 7092,
      "sabías": 7093,
      "salí": 7094,
      "salada": 7095,
      "montar": 7096,
      "presente": 7097,
      "uras": 7098,
      "míni": 7099,
      "quiénes": 7100,
      "frank": 7101,
      "manager": 7102,
      "tled": 7103,
      "genio": 7104,
      "solved": 7105,
      "tickets": 7106,
      "musici": 7107,
      "equipa": 7108,
      "june": 7109,
      "amazing": 7110,
      "climate": 7111,
      "tantas": 7112,
      "cookie": 7113,
      "pasará": 7114,
      "ocurre": 7115,
      "solamente": 7116,
      "actual": 7117,
      "subway": 7118,
      "levantarse": 7119,
      "attended": 7120,
      "acostar": 7121,
      "baile": 7122,
      "construir": 7123,
      "logical": 7124,
      "pública": 7125,
      "defend": 7126,
      "odian": 7127,
      "bebida": 7128,
      "alegría": 7129,
      "antiguo": 7130,
      "confused": 7131,
      "junio": 7132,
      "totally": 7133,
      "passengers": 7134,
      "horizon": 7135,
      "bere": 7136,
      "belo": 7137,
      "jé": 7138,
      "pás": 7139,
      "ral": 7140,
      "rit": 7141,
      "smil": 7142,
      "vul": 7143,
      "yi": 7144,
      "yoko": 7145,
      "ára": 7146,
      "tol": 7147,
      "tocó": 7148,
      "inar": 7149,
      "deme": 7150,
      "detuvo": 7151,
      "aled": 7152,
      "alcal": 7153,
      "lava": 7154,
      "rece": 7155,
      "meg": 7156,
      "sep": 7157,
      "contiene": 7158,
      "cae": 7159,
      "cau": 7160,
      "cure": 7161,
      "bebo": 7162,
      "solit": 7163,
      "sombra": 7164,
      "perfor": 7165,
      "tual": 7166,
      "pot": 7167,
      "boo": 7168,
      "paga": 7169,
      "rescu": 7170,
      "bull": 7171,
      "caracter": 7172,
      "moral": 7173,
      "gieron": 7174,
      "cheek": 7175,
      "plata": 7176,
      "cometido": 7177,
      "numer": 7178,
      "bush": 7179,
      "mejorar": 7180,
      "amiento": 7181,
      "francesa": 7182,
      "barba": 7183,
      "based": 7184,
      "posite": 7185,
      "tines": 7186,
      "hung": 7187,
      "consigo": 7188,
      "enfermera": 7189,
      "historias": 7190,
      "recibí": 7191,
      "duró": 7192,
      "colors": 7193,
      "supone": 7194,
      "suppose": 7195,
      "drove": 7196,
      "vistazo": 7197,
      "iguales": 7198,
      "record": 7199,
      "confío": 7200,
      "fotografía": 7201,
      "novels": 7202,
      "escaped": 7203,
      "regresar": 7204,
      "ataque": 7205,
      "recuerdas": 7206,
      "descrip": 7207,
      "islam": 7208,
      "hesita": 7209,
      "instrucciones": 7210,
      "preguntarle": 7211,
      "argument": 7212,
      "ríe": 7213,
      "fantasmas": 7214,
      "sospechoso": 7215,
      "quality": 7216,
      "assume": 7217,
      "portugués": 7218,
      "british": 7219,
      "literature": 7220,
      "literatura": 7221,
      "comentarios": 7222,
      "ghost": 7223,
      "claimed": 7224,
      "harvard": 7225,
      "aproximadamente": 7226,
      "amount": 7227,
      "asesinato": 7228,
      "credit": 7229,
      "smiling": 7230,
      "árabe": 7231,
      "agen": 7232,
      "aparte": 7233,
      "blished": 7234,
      "ides": 7235,
      "ired": 7236,
      "ilidad": 7237,
      "link": 7238,
      "vase": 7239,
      "ñado": 7240,
      "escap": 7241,
      "towel": 7242,
      "delay": 7243,
      "isa": 7244,
      "meji": 7245,
      "cop": 7246,
      "itely": 7247,
      "contain": 7248,
      "lift": 7249,
      "behave": 7250,
      "verla": 7251,
      "sum": 7252,
      "subir": 7253,
      "hopes": 7254,
      "victoria": 7255,
      "marcha": 7256,
      "mués": 7257,
      "adminis": 7258,
      "irri": 7259,
      "cant": 7260,
      "paquete": 7261,
      "desgracia": 7262,
      "saca": 7263,
      "nado": 7264,
      "vengan": 7265,
      "preven": 7266,
      "acción": 7267,
      "mortal": 7268,
      "distur": 7269,
      "comun": 7270,
      "sabor": 7271,
      "task": 7272,
      "mayuko": 7273,
      "appar": 7274,
      "esperan": 7275,
      "míos": 7276,
      "volando": 7277,
      "drew": 7278,
      "listos": 7279,
      "palo": 7280,
      "encontraste": 7281,
      "opposite": 7282,
      "teníamos": 7283,
      "aprende": 7284,
      "mático": 7285,
      "winning": 7286,
      "hungar": 7287,
      "conduce": 7288,
      "quedamos": 7289,
      "coleccion": 7290,
      "blancas": 7291,
      "preguntaba": 7292,
      "levantar": 7293,
      "shame": 7294,
      "preparando": 7295,
      "lingu": 7296,
      "amarillo": 7297,
      "compared": 7298,
      "políticos": 7299,
      "asuntos": 7300,
      "photos": 7301,
      "insectos": 7302,
      "durmió": 7303,
      "conejo": 7304,
      "asegurar": 7305,
      "progress": 7306,
      "consciousness": 7307,
      "escondiendo": 7308,
      "deportes": 7309,
      "recientemente": 7310,
      "tamaño": 7311,
      "refrigerator": 7312,
      "google": 7313,
      "ejército": 7314,
      "sánd": 7315,
      "\"?": 7316,
      "atom": 7317,
      "dust": 7318,
      "flas": 7319,
      "ira": 7320,
      "kka": 7321,
      "plas": 7322,
      "pong": 7323,
      "ansi": 7324,
      "insu": 7325,
      "devil": 7326,
      "remos": 7327,
      "revel": 7328,
      "temb": 7329,
      "unlikely": 7330,
      "tied": 7331,
      "coinci": 7332,
      "located": 7333,
      "chiste": 7334,
      "usan": 7335,
      "useless": 7336,
      "miel": 7337,
      "cuento": 7338,
      "suger": 7339,
      "racis": 7340,
      "persu": 7341,
      "papas": 7342,
      "pagan": 7343,
      "propor": 7344,
      "ficios": 7345,
      "gation": 7346,
      "quédate": 7347,
      "carl": 7348,
      "bleed": 7349,
      "tantos": 7350,
      "service": 7351,
      "llevan": 7352,
      "gustar": 7353,
      "olor": 7354,
      "visa": 7355,
      "corn": 7356,
      "cometió": 7357,
      "aquello": 7358,
      "nuts": 7359,
      "saltó": 7360,
      "reads": 7361,
      "ctly": 7362,
      "culous": 7363,
      "cillo": 7364,
      "cintur": 7365,
      "zaron": 7366,
      "shock": 7367,
      "pelu": 7368,
      "habido": 7369,
      "badly": 7370,
      "punish": 7371,
      "quedaré": 7372,
      "196": 7373,
      "supper": 7374,
      "propios": 7375,
      "vícti": 7376,
      "pudimos": 7377,
      "espere": 7378,
      "espír": 7379,
      "escalera": 7380,
      "admitir": 7381,
      "disfrutar": 7382,
      "obede": 7383,
      "afortunado": 7384,
      "genius": 7385,
      "inventó": 7386,
      "spirit": 7387,
      "imaginación": 7388,
      "ológico": 7389,
      "héroe": 7390,
      "impuestos": 7391,
      "optimis": 7392,
      "calcetines": 7393,
      ").": 7394,
      "300": 7395,
      "fl": 7396,
      "gano": 7397,
      "gging": 7398,
      "ille": 7399,
      "swear": 7400,
      "zon": 7401,
      "áculo": 7402,
      "toward": 7403,
      "thick": 7404,
      "astu": 7405,
      "quía": 7406,
      "alar": 7407,
      "nombres": 7408,
      "lección": 7409,
      "tomas": 7410,
      "tia": 7411,
      "cidos": 7412,
      "ustra": 7413,
      "lities": 7414,
      "becoming": 7415,
      "rie": 7416,
      "suma": 7417,
      "victi": 7418,
      "march": 7419,
      "formu": 7420,
      "wiches": 7421,
      "admira": 7422,
      "pegó": 7423,
      "pate": 7424,
      "pico": 7425,
      "notas": 7426,
      "worn": 7427,
      "prevent": 7428,
      "larger": 7429,
      "dudas": 7430,
      "passion": 7431,
      "llegaste": 7432,
      "cheer": 7433,
      "trozo": 7434,
      "llaman": 7435,
      "frigh": 7436,
      "salad": 7437,
      "sayib": 7438,
      "seguros": 7439,
      "rostro": 7440,
      "dentista": 7441,
      "decirlo": 7442,
      "alegre": 7443,
      "sorprend": 7444,
      "counter": 7445,
      "shoot": 7446,
      "festi": 7447,
      "finding": 7448,
      "pesca": 7449,
      "ayudara": 7450,
      "warned": 7451,
      "juegan": 7452,
      "quedaron": 7453,
      "invitado": 7454,
      "bitter": 7455,
      "móvil": 7456,
      "walks": 7457,
      "smaller": 7458,
      "spell": 7459,
      "viniste": 7460,
      "captain": 7461,
      "holding": 7462,
      "elecciones": 7463,
      "compartir": 7464,
      "invitó": 7465,
      "battle": 7466,
      "continued": 7467,
      "growing": 7468,
      "vacío": 7469,
      "remains": 7470,
      "website": 7471,
      "economy": 7472,
      "reply": 7473,
      "billete": 7474,
      "kilometers": 7475,
      "juguete": 7476,
      "crossing": 7477,
      "mentiras": 7478,
      "cuidadoso": 7479,
      "británi": 7480,
      "ghosts": 7481,
      "dificultades": 7482,
      "argentina": 7483,
      "aspecto": 7484,
      "details": 7485,
      "cigarette": 7486,
      "ayúdame": 7487,
      "desierto": 7488,
      "suspect": 7489,
      "acei": 7490,
      "dero": 7491,
      "em": 7492,
      "hú": 7493,
      "jante": 7494,
      "kit": 7495,
      "psi": 7496,
      "sque": 7497,
      "scri": 7498,
      "zona": 7499,
      "ético": 7500,
      "tool": 7501,
      "aspir": 7502,
      "decl": 7503,
      "repa": 7504,
      "trusted": 7505,
      "chall": 7506,
      "chose": 7507,
      "usado": 7508,
      "concep": 7509,
      "beard": 7510,
      "radi": 7511,
      "marte": 7512,
      "enty": 7513,
      "entusias": 7514,
      "tulo": 7515,
      "moslo": 7516,
      "pear": 7517,
      "pepper": 7518,
      "quita": 7519,
      "mantén": 7520,
      "pagó": 7521,
      "sheep": 7522,
      "puertas": 7523,
      "hatred": 7524,
      "exi": 7525,
      "extrat": 7526,
      "fume": 7527,
      "fea": 7528,
      "tano": 7529,
      "taninna": 7530,
      "minor": 7531,
      "largas": 7532,
      "éstos": 7533,
      "seria": 7534,
      "masco": 7535,
      "impi": 7536,
      "guapo": 7537,
      "presu": 7538,
      "turkey": 7539,
      "obst": 7540,
      "starts": 7541,
      "thoughts": 7542,
      "razones": 7543,
      "besar": 7544,
      "pesado": 7545,
      "sleepy": 7546,
      "difíciles": 7547,
      "complex": 7548,
      "kindness": 7549,
      "universal": 7550,
      "landés": 7551,
      "productos": 7552,
      "plenty": 7553,
      "supp": 7554,
      "imagination": 7555,
      "ential": 7556,
      "debí": 7557,
      "cleaning": 7558,
      "traveling": 7559,
      "wheel": 7560,
      "violin": 7561,
      "desperté": 7562,
      "incredi": 7563,
      "aprobar": 7564,
      "despite": 7565,
      "orgullosa": 7566,
      "dueño": 7567,
      "further": 7568,
      "document": 7569,
      "christian": 7570,
      "páginas": 7571,
      "ariamente": 7572,
      "controlar": 7573,
      "suave": 7574,
      "pusieron": 7575,
      "patatas": 7576,
      "elephant": 7577,
      "arabic": 7578,
      "compromis": 7579,
      "consists": 7580,
      "crédito": 7581,
      "dinosau": 7582,
      "technology": 7583,
      "extrater": 7584,
      "cran": 7585,
      "glor": 7586,
      "jen": 7587,
      "lás": 7588,
      "rise": 7589,
      "sne": 7590,
      "screw": 7591,
      "ensé": 7592,
      "toler": 7593,
      "detal": 7594,
      "ref": 7595,
      "unable": 7596,
      "haw": 7597,
      "hagan": 7598,
      "lectura": 7599,
      "youth": 7600,
      "tipos": 7601,
      "tillas": 7602,
      "caba": 7603,
      "migr": 7604,
      "estén": 7605,
      "sugi": 7606,
      "nega": 7607,
      "irrel": 7608,
      "weigh": 7609,
      "puestos": 7610,
      "propie": 7611,
      "sau": 7612,
      "nica": 7613,
      "tiende": 7614,
      "naive": 7615,
      "casados": 7616,
      "cará": 7617,
      "adoles": 7618,
      "mistaken": 7619,
      "horror": 7620,
      "upset": 7621,
      "gris": 7622,
      "imper": 7623,
      "calur": 7624,
      "humo": 7625,
      "grama": 7626,
      "juventu": 7627,
      "presence": 7628,
      "planta": 7629,
      "testi": 7630,
      "iada": 7631,
      "sencillo": 7632,
      "firme": 7633,
      "dentist": 7634,
      "obses": 7635,
      "turns": 7636,
      "pelear": 7637,
      "ayudarnos": 7638,
      "entregar": 7639,
      "profession": 7640,
      "arries": 7641,
      "pequeñas": 7642,
      "espada": 7643,
      "celular": 7644,
      "pasajeros": 7645,
      "burst": 7646,
      "directo": 7647,
      "visité": 7648,
      "traté": 7649,
      "experiment": 7650,
      "entiendes": 7651,
      "campe": 7652,
      "lines": 7653,
      "compañero": 7654,
      "atrapado": 7655,
      "generalmente": 7656,
      "confía": 7657,
      "traveled": 7658,
      "lingü": 7659,
      "average": 7660,
      "molest": 7661,
      "muertos": 7662,
      "aterri": 7663,
      "evidence": 7664,
      "liberty": 7665,
      "corrup": 7666,
      "despierta": 7667,
      "eigh": 7668,
      "bench": 7669,
      "sexual": 7670,
      "greece": 7671,
      "ónica": 7672,
      "investigación": 7673,
      "utilizar": 7674,
      "squirrel": 7675,
      "permission": 7676,
      "importance": 7677,
      "assumed": 7678,
      "descubrir": 7679,
      "knocked": 7680,
      "capitán": 7681,
      "elefante": 7682,
      "bromeando": 7683,
      "moneda": 7684,
      "allergic": 7685,
      "tecnología": 7686,
      "alcalde": 7687,
      "prevented": 7688,
      "aceite": 7689,
      "juventud": 7690,
      "acuer": 7691,
      "bits": 7692,
      "imi": 7693,
      "jab": 7694,
      "mali": 7695,
      "ove": 7696,
      "tinto": 7697,
      "áfrica": 7698,
      "tomed": 7699,
      "ares": 7700,
      "infi": 7701,
      "hated": 7702,
      "secun": 7703,
      "logo": 7704,
      "rojas": 7705,
      "mite": 7706,
      "suje": 7707,
      "andando": 7708,
      "mul": 7709,
      "cantó": 7710,
      "pulled": 7711,
      "pica": 7712,
      "desafortunadamente": 7713,
      "votar": 7714,
      "cerrado": 7715,
      "fuente": 7716,
      "fecha": 7717,
      "blew": 7718,
      "venden": 7719,
      "tanaka": 7720,
      "vain": 7721,
      "gira": 7722,
      "disparó": 7723,
      "corona": 7724,
      "command": 7725,
      "breve": 7726,
      "humi": 7727,
      "tells": 7728,
      "apel": 7729,
      "urgent": 7730,
      "grecia": 7731,
      "elected": 7732,
      "bang": 7733,
      "roses": 7734,
      "gained": 7735,
      "basta": 7736,
      "changing": 7737,
      "calles": 7738,
      "drives": 7739,
      "brief": 7740,
      "contrato": 7741,
      "falle": 7742,
      "constante": 7743,
      "rápida": 7744,
      "puntos": 7745,
      "salida": 7746,
      "entré": 7747,
      "adivin": 7748,
      "direction": 7749,
      "plá": 7750,
      "couch": 7751,
      "nearest": 7752,
      "spot": 7753,
      "contains": 7754,
      "sweat": 7755,
      "preparar": 7756,
      "molestar": 7757,
      "ambas": 7758,
      "instructions": 7759,
      "powerful": 7760,
      "repetir": 7761,
      "economic": 7762,
      "muebles": 7763,
      "swit": 7764,
      "participar": 7765,
      "pelea": 7766,
      "asistir": 7767,
      "physics": 7768,
      "miembro": 7769,
      "separat": 7770,
      "astronau": 7771,
      "journal": 7772,
      "interrump": 7773,
      "guests": 7774,
      "accustomed": 7775,
      "sensitive": 7776,
      "detesto": 7777,
      "alpha": 7778,
      "environment": 7779,
      "equipaje": 7780,
      "festival": 7781,
      "repaired": 7782,
      "amed": 7783,
      "apuesto": 7784,
      "bound": 7785,
      "ctas": 7786,
      "fought": 7787,
      "iro": 7788,
      "iva": 7789,
      "och": 7790,
      "rías": 7791,
      "rely": 7792,
      "swed": 7793,
      "vano": 7794,
      "zados": 7795,
      "ésa": 7796,
      "óli": 7797,
      "útiles": 7798,
      "enseguida": 7799,
      "anxi": 7800,
      "algu": 7801,
      "representa": 7802,
      "digan": 7803,
      "congrat": 7804,
      "camar": 7805,
      "lips": 7806,
      "absen": 7807,
      "vives": 7808,
      "model": 7809,
      "persua": 7810,
      "llé": 7811,
      "tentación": 7812,
      "picas": 7813,
      "fav": 7814,
      "filos": 7815,
      "carga": 7816,
      "compen": 7817,
      "active": 7818,
      "durar": 7819,
      "disculpa": 7820,
      "daron": 7821,
      "berber": 7822,
      "gritó": 7823,
      "sabio": 7824,
      "automó": 7825,
      "interro": 7826,
      "union": 7827,
      "presión": 7828,
      "ayudé": 7829,
      "fog": 7830,
      "esperó": 7831,
      "daste": 7832,
      "urgente": 7833,
      "lower": 7834,
      "sensible": 7835,
      "sort": 7836,
      "tiró": 7837,
      "vues": 7838,
      "putting": 7839,
      "survive": 7840,
      "débil": 7841,
      "shows": 7842,
      "falda": 7843,
      "piezas": 7844,
      "sundays": 7845,
      "ículos": 7846,
      "dejaré": 7847,
      "resulta": 7848,
      "intention": 7849,
      "extrañ": 7850,
      "pasatiempo": 7851,
      "producto": 7852,
      "trabajan": 7853,
      "pray": 7854,
      "snowing": 7855,
      "shape": 7856,
      "fuertes": 7857,
      "reasons": 7858,
      "descubi": 7859,
      "jesus": 7860,
      "increase": 7861,
      "aguant": 7862,
      "regresó": 7863,
      "appearance": 7864,
      "batalla": 7865,
      "sym": 7866,
      "threaten": 7867,
      "newspapers": 7868,
      "considerado": 7869,
      "borrowed": 7870,
      "ingeni": 7871,
      "candy": 7872,
      "attractive": 7873,
      "científicos": 7874,
      "recognize": 7875,
      "rabbit": 7876,
      "achieve": 7877,
      "basketball": 7878,
      "suspicious": 7879,
      "schedu": 7880,
      "hombro": 7881,
      "secundar": 7882,
      "alguno": 7883,
      "'.": 7884,
      "egi": 7885,
      "foun": 7886,
      "lento": 7887,
      "oye": 7888,
      "pli": 7889,
      "pink": 7890,
      "pali": 7891,
      "rell": 7892,
      "uk": 7893,
      "wins": 7894,
      "zes": 7895,
      "zcas": 7896,
      "escen": 7897,
      "ensalada": 7898,
      "ancho": 7899,
      "decei": 7900,
      "issue": 7901,
      "alas": 7902,
      "lap": 7903,
      "reun": 7904,
      "requiere": 7905,
      "tilla": 7906,
      "heavi": 7907,
      "semb": 7908,
      "diplo": 7909,
      "ató": 7910,
      "ciento": 7911,
      "mical": 7912,
      "beth": 7913,
      "bebió": 7914,
      "hokka": 7915,
      "nevar": 7916,
      "terms": 7917,
      "estatu": 7918,
      "podamos": 7919,
      "bible": 7920,
      "bola": 7921,
      "pañ": 7922,
      "resear": 7923,
      "bucket": 7924,
      "sake": 7925,
      "trago": 7926,
      "luce": 7927,
      "dish": 7928,
      "disgu": 7929,
      "elimin": 7930,
      "gritar": 7931,
      "sabés": 7932,
      "sushi": 7933,
      "mess": 7934,
      "gerente": 7935,
      "pressure": 7936,
      "amigas": 7937,
      "importaría": 7938,
      "medical": 7939,
      "trece": 7940,
      "doctors": 7941,
      "punta": 7942,
      "owner": 7943,
      "téc": 7944,
      "balon": 7945,
      "rarely": 7946,
      "valent": 7947,
      "método": 7948,
      "músico": 7949,
      "perfecta": 7950,
      "jugadores": 7951,
      "apoyo": 7952,
      "shake": 7953,
      "inteligentes": 7954,
      "frequ": 7955,
      "despertó": 7956,
      "password": 7957,
      "egy": 7958,
      "flew": 7959,
      "satisfa": 7960,
      "empleado": 7961,
      "operation": 7962,
      "symp": 7963,
      "deserves": 7964,
      "awful": 7965,
      "sexo": 7966,
      "insects": 7967,
      "volunte": 7968,
      "pluma": 7969,
      "thousands": 7970,
      "descansar": 7971,
      "tranquila": 7972,
      "electric": 7973,
      "holidays": 7974,
      "motorcycle": 7975,
      "nonsense": 7976,
      "hambur": 7977,
      "maravillosa": 7978,
      "revolution": 7979,
      "obviously": 7980,
      "cercana": 7981,
      "disponible": 7982,
      "curiosidad": 7983,
      "ridiculous": 7984,
      "betrayed": 7985,
      "cobarde": 7986,
      "noisy": 7987,
      "grateful": 7988,
      "juicio": 7989,
      "musician": 7990,
      "espíritu": 7991,
      "impidió": 7992,
      "egip": 7993,
      "hokkaido": 7994,
      "ctic": 7995,
      "gí": 7996,
      "ivo": 7997,
      "kar": 7998,
      "rounded": 7999,
      "stones": 8000,
      "scrat": 8001,
      "tent": 8002,
      "degre": 8003,
      "devolver": 8004,
      "depart": 8005,
      "elder": 8006,
      "dol": 8007,
      "almo": 8008,
      "alér": 8009,
      "lated": 8010,
      "nove": 8011,
      "reve": 8012,
      "tee": 8013,
      "member": 8014,
      "seca": 8015,
      "ats": 8016,
      "coward": 8017,
      "contado": 8018,
      "milit": 8019,
      "mientas": 8020,
      "madri": 8021,
      "mped": 8022,
      "sigo": 8023,
      "parts": 8024,
      "marks": 8025,
      "perman": 8026,
      "irnos": 8027,
      "pilo": 8028,
      "desmay": 8029,
      "ficado": 8030,
      "hers": 8031,
      "trap": 8032,
      "aliens": 8033,
      "ids": 8034,
      "plate": 8035,
      "core": 8036,
      "earn": 8037,
      "aseg": 8038,
      "salario": 8039,
      "jewel": 8040,
      "pond": 8041,
      "interior": 8042,
      "cencia": 8043,
      "gustado": 8044,
      "shoulder": 8045,
      "press": 8046,
      "tesoro": 8047,
      "contrase": 8048,
      "meros": 8049,
      "pala": 8050,
      "obvia": 8051,
      "classi": 8052,
      "polite": 8053,
      "símbo": 8054,
      "opening": 8055,
      "vuelvas": 8056,
      "ausencia": 8057,
      "santa": 8058,
      "dejara": 8059,
      "nuevamente": 8060,
      "saliendo": 8061,
      "princess": 8062,
      "princesa": 8063,
      "visiting": 8064,
      "claramente": 8065,
      "thirteen": 8066,
      "contagi": 8067,
      "llamarme": 8068,
      "levanté": 8069,
      "equivocada": 8070,
      "aceptó": 8071,
      "robbed": 8072,
      "sells": 8073,
      "agujero": 8074,
      "víde": 8075,
      "guardar": 8076,
      "empezaron": 8077,
      "conocerte": 8078,
      "continuar": 8079,
      "apaga": 8080,
      "estúpida": 8081,
      "disculpas": 8082,
      "observa": 8083,
      "minister": 8084,
      "definitely": 8085,
      "sueldo": 8086,
      "fantasma": 8087,
      "curious": 8088,
      "incident": 8089,
      "vinieron": 8090,
      "limpio": 8091,
      "conferencia": 8092,
      "bienvenida": 8093,
      "audience": 8094,
      "agradecido": 8095,
      "emergency": 8096,
      "suggested": 8097,
      "fundamental": 8098,
      "enfrent": 8099,
      "avergonzado": 8100,
      "riqueza": 8101,
      "mínimo": 8102,
      "cinturón": 8103,
      "absence": 8104,
      "degrees": 8105,
      "bour": 8106,
      "cén": 8107,
      "fera": 8108,
      "fts": 8109,
      "ize": 8110,
      "pment": 8111,
      "sword": 8112,
      "online": 8113,
      "laid": 8114,
      "repar": 8115,
      "remind": 8116,
      "tier": 8117,
      "sepas": 8118,
      "atras": 8119,
      "collar": 8120,
      "rot": 8121,
      "chando": 8122,
      "begun": 8123,
      "bears": 8124,
      "sobr": 8125,
      "soap": 8126,
      "sué": 8127,
      "raw": 8128,
      "pera": 8129,
      "wil": 8130,
      "muere": 8131,
      "lasted": 8132,
      "pecho": 8133,
      "mantuvo": 8134,
      "ghter": 8135,
      "restres": 8136,
      "pido": 8137,
      "desa": 8138,
      "desire": 8139,
      "herra": 8140,
      "cares": 8141,
      "carse": 8142,
      "pensab": 8143,
      "acters": 8144,
      "lario": 8145,
      "lucy": 8146,
      "talo": 8147,
      "talent": 8148,
      "cionales": 8149,
      "autu": 8150,
      "malos": 8151,
      "mesas": 8152,
      "brand": 8153,
      "diecis": 8154,
      "judy": 8155,
      "aches": 8156,
      "cuánta": 8157,
      "volví": 8158,
      "igned": 8159,
      "barrio": 8160,
      "firmar": 8161,
      "kicked": 8162,
      "haberse": 8163,
      "characters": 8164,
      "llovió": 8165,
      "temptation": 8166,
      "ayudarle": 8167,
      "jobs": 8168,
      "curr": 8169,
      "falso": 8170,
      "dejaron": 8171,
      "encontrarás": 8172,
      "lands": 8173,
      "vayan": 8174,
      "lloró": 8175,
      "propias": 8176,
      "airplane": 8177,
      "nadando": 8178,
      "continú": 8179,
      "grie": 8180,
      "griego": 8181,
      "deseando": 8182,
      "mrs": 8183,
      "hermosas": 8184,
      "ignorance": 8185,
      "touched": 8186,
      "prefiere": 8187,
      "ancient": 8188,
      "sofa": 8189,
      "movimiento": 8190,
      "concerned": 8191,
      "impressed": 8192,
      "veinti": 8193,
      "portugal": 8194,
      "comúnmente": 8195,
      "electricity": 8196,
      "logró": 8197,
      "ándome": 8198,
      "pantalla": 8199,
      "maripos": 8200,
      "decepcion": 8201,
      "controver": 8202,
      "ocurrir": 8203,
      "ocurrido": 8204,
      "causó": 8205,
      "ofreció": 8206,
      "misterio": 8207,
      "politicians": 8208,
      "abducted": 8209,
      "champion": 8210,
      "pregúntale": 8211,
      "apparently": 8212,
      "illegal": 8213,
      "21": 8214,
      "amane": 8215,
      "bing": 8216,
      "cón": 8217,
      "ease": 8218,
      "galo": 8219,
      "oeste": 8220,
      "pher": 8221,
      "pping": 8222,
      "rue": 8223,
      "tareas": 8224,
      "ensay": 8225,
      "tower": 8226,
      "toques": 8227,
      "dejo": 8228,
      "debió": 8229,
      "lación": 8230,
      "nota": 8231,
      "tabl": 8232,
      "dici": 8233,
      "ciru": 8234,
      "lobo": 8235,
      "locos": 8236,
      "caído": 8237,
      "lic": 8238,
      "mió": 8239,
      "estall": 8240,
      "mac": 8241,
      "martes": 8242,
      "motivo": 8243,
      "added": 8244,
      "puta": 8245,
      "desapareció": 8246,
      "exual": 8247,
      "fueras": 8248,
      "vengas": 8249,
      "acceso": 8250,
      "mintió": 8251,
      "torno": 8252,
      "shout": 8253,
      "zaje": 8254,
      "talented": 8255,
      "possibility": 8256,
      "aumento": 8257,
      "saldr": 8258,
      "jeans": 8259,
      "ponte": 8260,
      "estudió": 8261,
      "happi": 8262,
      "prime": 8263,
      "ruidos": 8264,
      "turning": 8265,
      "ocupar": 8266,
      "encontraron": 8267,
      "surrounded": 8268,
      "ayudará": 8269,
      "habilidad": 8270,
      "brio": 8271,
      "contract": 8272,
      "east": 8273,
      "austri": 8274,
      "tér": 8275,
      "balance": 8276,
      "belt": 8277,
      "paying": 8278,
      "extraordin": 8279,
      "cinema": 8280,
      "partida": 8281,
      "falls": 8282,
      "levantarme": 8283,
      "condición": 8284,
      "cleaned": 8285,
      "ignorancia": 8286,
      "molesto": 8287,
      "esperemos": 8288,
      "biblia": 8289,
      "tímido": 8290,
      "micros": 8291,
      "brazili": 8292,
      "piedras": 8293,
      "sandwich": 8294,
      "documento": 8295,
      "pensamientos": 8296,
      "periódicos": 8297,
      "suelen": 8298,
      "regaló": 8299,
      "imaginar": 8300,
      "independent": 8301,
      "expert": 8302,
      "suggest": 8303,
      "asomb": 8304,
      "acusado": 8305,
      "skiing": 8306,
      "convertirse": 8307,
      "individual": 8308,
      "source": 8309,
      "serpiente": 8310,
      "preocuparse": 8311,
      "gallina": 8312,
      "infancia": 8313,
      "zorro": 8314,
      "diagnos": 8315,
      "respirar": 8316,
      "prohibited": 8317,
      "boleto": 8318,
      "azules": 8319,
      "yiel": 8320,
      "baloncesto": 8321,
      "contraseña": 8322,
      "dalo": 8323,
      "fred": 8324,
      "gger": 8325,
      "haremos": 8326,
      "itos": 8327,
      "ls": 8328,
      "mnas": 8329,
      "vador": 8330,
      "ws": 8331,
      "entran": 8332,
      "towards": 8333,
      "thri": 8334,
      "armen": 8335,
      "anu": 8336,
      "inted": 8337,
      "asing": 8338,
      "lamp": 8339,
      "reven": 8340,
      "unció": 8341,
      "leta": 8342,
      "dil": 8343,
      "dica": 8344,
      "dirá": 8345,
      "diary": 8346,
      "copa": 8347,
      "coles": 8348,
      "veamos": 8349,
      "ital": 8350,
      "role": 8351,
      "rota": 8352,
      "robert": 8353,
      "chest": 8354,
      "contener": 8355,
      "cam": 8356,
      "cadas": 8357,
      "magic": 8358,
      "hoping": 8359,
      "cedió": 8360,
      "marchar": 8361,
      "momentos": 8362,
      "hijas": 8363,
      "pago": 8364,
      "pagado": 8365,
      "pio": 8366,
      "protest": 8367,
      "sail": 8368,
      "niñ": 8369,
      "exhi": 8370,
      "outfit": 8371,
      "nations": 8372,
      "casos": 8373,
      "trado": 8374,
      "trame": 8375,
      "vene": 8376,
      "actri": 8377,
      "acting": 8378,
      "access": 8379,
      "actress": 8380,
      "presta": 8381,
      "pasta": 8382,
      "lleve": 8383,
      "cheated": 8384,
      "landia": 8385,
      "aliento": 8386,
      "impe": 8387,
      "improb": 8388,
      "sabéis": 8389,
      "estupide": 8390,
      "francis": 8391,
      "otherwise": 8392,
      "demasiada": 8393,
      "adorable": 8394,
      "treasure": 8395,
      "aprendi": 8396,
      "aprendiste": 8397,
      "understands": 8398,
      "déj": 8399,
      "brilla": 8400,
      "current": 8401,
      "empeor": 8402,
      "acabas": 8403,
      "sleeps": 8404,
      "clá": 8405,
      "responsibility": 8406,
      "closet": 8407,
      "invitación": 8408,
      "grown": 8409,
      "frutas": 8410,
      "recién": 8411,
      "product": 8412,
      "accidentes": 8413,
      "preferido": 8414,
      "espect": 8415,
      "orders": 8416,
      "números": 8417,
      "delicioso": 8418,
      "double": 8419,
      "various": 8420,
      "translating": 8421,
      "reliable": 8422,
      "jesús": 8423,
      "vendría": 8424,
      "invit": 8425,
      "origen": 8426,
      "admitió": 8427,
      "refuse": 8428,
      "acostumbrar": 8429,
      "smarter": 8430,
      "advance": 8431,
      "actitud": 8432,
      "electricidad": 8433,
      "ridículo": 8434,
      "acercó": 8435,
      "valiente": 8436,
      "responsabilidad": 8437,
      "efecto": 8438,
      "efectivo": 8439,
      "washington": 8440,
      "polish": 8441,
      "permanecer": 8442,
      "taxes": 8443,
      "dificultad": 8444,
      "witness": 8445,
      "mystery": 8446,
      "debate": 8447,
      "wolf": 8448,
      "adecuado": 8449,
      "depressed": 8450,
      "repentina": 8451,
      "lástima": 8452,
      "infierno": 8453,
      "symbol": 8454,
      "research": 8455,
      "obviamente": 8456,
      "suéter": 8457,
      "autumn": 8458,
      "improbable": 8459,
      "bú": 8460,
      "ckets": 8461,
      "eh": 8462,
      "gase": 8463,
      "ii": 8464,
      "skill": 8465,
      "zón": 8466,
      "estru": 8467,
      "toalla": 8468,
      "inf": 8469,
      "inun": 8470,
      "inva": 8471,
      "intri": 8472,
      "infla": 8473,
      "incapaz": 8474,
      "aler": 8475,
      "alfa": 8476,
      "lace": 8477,
      "nowhere": 8478,
      "unexpected": 8479,
      "hada": 8480,
      "tadas": 8481,
      "comas": 8482,
      "locura": 8483,
      "conjunto": 8484,
      "liz": 8485,
      "verle": 8486,
      "supo": 8487,
      "suceder": 8488,
      "simo": 8489,
      "marco": 8490,
      "formar": 8491,
      "forms": 8492,
      "percent": 8493,
      "muro": 8494,
      "adonde": 8495,
      "tered": 8496,
      "hired": 8497,
      "teniendo": 8498,
      "gemel": 8499,
      "shed": 8500,
      "pure": 8501,
      "proof": 8502,
      "provi": 8503,
      "desp": 8504,
      "fama": 8505,
      "exchange": 8506,
      "cercano": 8507,
      "venen": 8508,
      "vengo": 8509,
      "compre": 8510,
      "acted": 8511,
      "actú": 8512,
      "pasto": 8513,
      "pasan": 8514,
      "pasear": 8515,
      "hormi": 8516,
      "gray": 8517,
      "gracioso": 8518,
      "automo": 8519,
      "salga": 8520,
      "sincera": 8521,
      "affair": 8522,
      "dreamed": 8523,
      "medios": 8524,
      "ions": 8525,
      "sore": 8526,
      "haberle": 8527,
      "staring": 8528,
      "viajes": 8529,
      "miraba": 8530,
      "máxi": 8531,
      "ctual": 8532,
      "ciudadano": 8533,
      "profesion": 8534,
      "beings": 8535,
      "breaking": 8536,
      "encantador": 8537,
      "classmates": 8538,
      "captur": 8539,
      "llevará": 8540,
      "shorter": 8541,
      "presentó": 8542,
      "deliver": 8543,
      "fluently": 8544,
      "apoy": 8545,
      "fingió": 8546,
      "ignore": 8547,
      "convencido": 8548,
      "enamorada": 8549,
      "selling": 8550,
      "expresar": 8551,
      "impresión": 8552,
      "discussion": 8553,
      "profunda": 8554,
      "apagó": 8555,
      "millón": 8556,
      "disculpar": 8557,
      "ministro": 8558,
      "hablante": 8559,
      "orejas": 8560,
      "ventaja": 8561,
      "snake": 8562,
      "rechazó": 8563,
      "licencia": 8564,
      "juguetes": 8565,
      "hierro": 8566,
      "asustado": 8567,
      "photograph": 8568,
      "copia": 8569,
      "itud": 8570,
      "resuel": 8571,
      "secretary": 8572,
      "serpientes": 8573,
      "helicop": 8574,
      "annoying": 8575,
      "vegetarian": 8576,
      "cansados": 8577,
      "sencillamente": 8578,
      "conclusion": 8579,
      "medicamento": 8580,
      "recommend": 8581,
      "puppy": 8582,
      "bereber": 8583,
      "filosof": 8584,
      "45": 8585,
      "adays": 8586,
      "apropi": 8587,
      "ampli": 8588,
      "bera": 8589,
      "bater": 8590,
      "cend": 8591,
      "fare": 8592,
      "fraz": 8593,
      "hong": 8594,
      "ipad": 8595,
      "ized": 8596,
      "rings": 8597,
      "uñas": 8598,
      "ware": 8599,
      "zana": 8600,
      "íz": 8601,
      "ífico": 8602,
      "arañ": 8603,
      "ald": 8604,
      "alfo": 8605,
      "altura": 8606,
      "laba": 8607,
      "rega": 8608,
      "reparar": 8609,
      "remark": 8610,
      "hawai": 8611,
      "letras": 8612,
      "tip": 8613,
      "sees": 8614,
      "diam": 8615,
      "divide": 8616,
      "veter": 8617,
      "cakes": 8618,
      "causes": 8619,
      "mida": 8620,
      "cuchar": 8621,
      "beans": 8622,
      "estaremos": 8623,
      "vernos": 8624,
      "mata": 8625,
      "mples": 8626,
      "siga": 8627,
      "tend": 8628,
      "mosquito": 8629,
      "poes": 8630,
      "pages": 8631,
      "sheet": 8632,
      "pizar": 8633,
      "nidad": 8634,
      "nowadays": 8635,
      "extin": 8636,
      "estor": 8637,
      "feo": 8638,
      "jam": 8639,
      "jate": 8640,
      "tanos": 8641,
      "adopt": 8642,
      "prín": 8643,
      "vacas": 8644,
      "creó": 8645,
      "therefore": 8646,
      "serán": 8647,
      "aliment": 8648,
      "disney": 8649,
      "garo": 8650,
      "garon": 8651,
      "muchísimo": 8652,
      "berlin": 8653,
      "ako": 8654,
      "akes": 8655,
      "cale": 8656,
      "trabajos": 8657,
      "numbers": 8658,
      "sincer": 8659,
      "unión": 8660,
      "estuvieron": 8661,
      "ously": 8662,
      "presencia": 8663,
      "ruined": 8664,
      "speakers": 8665,
      "engor": 8666,
      "volviendo": 8667,
      "mercu": 8668,
      "senté": 8669,
      "pale": 8670,
      "obtuvo": 8671,
      "kilos": 8672,
      "cambios": 8673,
      "sesenta": 8674,
      "empecé": 8675,
      "vuelvo": 8676,
      "remembered": 8677,
      "realizar": 8678,
      "lín": 8679,
      "intentarlo": 8680,
      "consequ": 8681,
      "dreaming": 8682,
      "accidents": 8683,
      "suppor": 8684,
      "aries": 8685,
      "experimento": 8686,
      "higher": 8687,
      "coln": 8688,
      "lincoln": 8689,
      "frau": 8690,
      "streets": 8691,
      "promises": 8692,
      "construyó": 8693,
      "occas": 8694,
      "expresión": 8695,
      "complained": 8696,
      "conocida": 8697,
      "straw": 8698,
      "estima": 8699,
      "doubts": 8700,
      "court": 8701,
      "seats": 8702,
      "leader": 8703,
      "arguing": 8704,
      "removed": 8705,
      "existence": 8706,
      "graduated": 8707,
      "desayuna": 8708,
      "drawing": 8709,
      "mueve": 8710,
      "snakes": 8711,
      "decepcionado": 8712,
      "announ": 8713,
      "divided": 8714,
      "suffering": 8715,
      "llamaste": 8716,
      "añadir": 8717,
      "cows": 8718,
      "científico": 8719,
      "effect": 8720,
      "politician": 8721,
      "valuable": 8722,
      "exhausted": 8723,
      "species": 8724,
      "entendí": 8725,
      "esquiar": 8726,
      "instituto": 8727,
      "tuesday": 8728,
      "louder": 8729,
      "flash": 8730,
      "plastic": 8731,
      "extraterrestres": 8732,
      "apellido": 8733,
      "picasso": 8734,
      "madrid": 8735,
      "tablero": 8736,
      "términ": 8737,
      "actriz": 8738,
      "espectáculo": 8739,
      "zanahor": 8740,
      "prínci": 8741,
      "80": 8742,
      "ave": 8743,
      "aza": 8744,
      "ages": 8745,
      "mits": 8746,
      "oba": 8747,
      "opon": 8748,
      "ery": 8749,
      "enas": 8750,
      "tosa": 8751,
      "arco": 8752,
      "arnos": 8753,
      "inde": 8754,
      "dear": 8755,
      "iso": 8756,
      "quen": 8757,
      "reprodu": 8758,
      "mete": 8759,
      "unfair": 8760,
      "lecture": 8761,
      "tial": 8762,
      "tiro": 8763,
      "tidos": 8764,
      "quema": 8765,
      "quejas": 8766,
      "attitude": 8767,
      "cima": 8768,
      "colla": 8769,
      "veh": 8770,
      "loose": 8771,
      "robot": 8772,
      "concentr": 8773,
      "sigues": 8774,
      "perfume": 8775,
      "mutu": 8776,
      "tuviste": 8777,
      "term": 8778,
      "hire": 8779,
      "petró": 8780,
      "baff": 8781,
      "painter": 8782,
      "pací": 8783,
      "joking": 8784,
      "pidiendo": 8785,
      "provide": 8786,
      "desas": 8787,
      "sonar": 8788,
      "compare": 8789,
      "tances": 8790,
      "rana": 8791,
      "lleg": 8792,
      "stun": 8793,
      "alimentos": 8794,
      "chile": 8795,
      "berg": 8796,
      "bromas": 8797,
      "éndose": 8798,
      "sustan": 8799,
      "jugamos": 8800,
      "presents": 8801,
      "stico": 8802,
      "ideal": 8803,
      "sentada": 8804,
      "lisa": 8805,
      "escribo": 8806,
      "ñame": 8807,
      "podré": 8808,
      "aprendió": 8809,
      "handle": 8810,
      "warning": 8811,
      "arriving": 8812,
      "farmer": 8813,
      "bald": 8814,
      "circun": 8815,
      "invitation": 8816,
      "mites": 8817,
      "burning": 8818,
      "directamente": 8819,
      "visitó": 8820,
      "wishes": 8821,
      "consejos": 8822,
      "abril": 8823,
      "crus": 8824,
      "contamin": 8825,
      "americanos": 8826,
      "shadow": 8827,
      "naturales": 8828,
      "poems": 8829,
      "ignored": 8830,
      "violín": 8831,
      "convenció": 8832,
      "exists": 8833,
      "occi": 8834,
      "engaged": 8835,
      "corrí": 8836,
      "pretend": 8837,
      "spite": 8838,
      "documentos": 8839,
      "points": 8840,
      "complicado": 8841,
      "improved": 8842,
      "independiente": 8843,
      "agarró": 8844,
      "pillow": 8845,
      "detective": 8846,
      "grammar": 8847,
      "stealing": 8848,
      "throat": 8849,
      "scientists": 8850,
      "philosophy": 8851,
      "adelan": 8852,
      "april": 8853,
      "gasolina": 8854,
      "require": 8855,
      "euros": 8856,
      "obedecer": 8857,
      "kitten": 8858,
      "compensa": 8859,
      "escenario": 8860,
      "brazilian": 8861,
      "filosofía": 8862,
      "poesía": 8863,
      "23": 8864,
      "aim": 8865,
      "gén": 8866,
      "gloves": 8867,
      "hí": 8868,
      "oven": 8869,
      "scol": 8870,
      "tá": 8871,
      "esfor": 8872,
      "estion": 8873,
      "toque": 8874,
      "toys": 8875,
      "topic": 8876,
      "argue": 8877,
      "arquite": 8878,
      "income": 8879,
      "aside": 8880,
      "lau": 8881,
      "latest": 8882,
      "refi": 8883,
      "remove": 8884,
      "temas": 8885,
      "dick": 8886,
      "atar": 8887,
      "coin": 8888,
      "trar": 8889,
      "veje": 8890,
      "damas": 8891,
      "usó": 8892,
      "gober": 8893,
      "cave": 8894,
      "cuestion": 8895,
      "hoja": 8896,
      "vivos": 8897,
      "ray": 8898,
      "rame": 8899,
      "modelo": 8900,
      "nevando": 8901,
      "negras": 8902,
      "tube": 8903,
      "mentado": 8904,
      "mantiene": 8905,
      "manded": 8906,
      "guay": 8907,
      "guantes": 8908,
      "pura": 8909,
      "puzz": 8910,
      "voca": 8911,
      "fila": 8912,
      "notes": 8913,
      "nap": 8914,
      "trapped": 8915,
      "caron": 8916,
      "carlos": 8917,
      "fucking": 8918,
      "jamos": 8919,
      "servir": 8920,
      "cheaper": 8921,
      "chemical": 8922,
      "lucha": 8923,
      "disas": 8924,
      "disfraz": 8925,
      "masa": 8926,
      "shine": 8927,
      "coser": 8928,
      "berlín": 8929,
      "llate": 8930,
      "elige": 8931,
      "hug": 8932,
      "fridge": 8933,
      "autén": 8934,
      "salvó": 8935,
      "jected": 8936,
      "ponía": 8937,
      "interse": 8938,
      "estuvimos": 8939,
      "priest": 8940,
      "priva": 8941,
      "focus": 8942,
      "cómoda": 8943,
      "esperaré": 8944,
      "compraron": 8945,
      "elegido": 8946,
      "trump": 8947,
      "frances": 8948,
      "bananas": 8949,
      "firm": 8950,
      "estudias": 8951,
      "estudiado": 8952,
      "varie": 8953,
      "fasti": 8954,
      "norm": 8955,
      "adoro": 8956,
      "signed": 8957,
      "terminé": 8958,
      "millie": 8959,
      "completa": 8960,
      "prision": 8961,
      "trenes": 8962,
      "pinta": 8963,
      "embas": 8964,
      "intentado": 8965,
      "click": 8966,
      "plástico": 8967,
      "arily": 8968,
      "visitors": 8969,
      "blancos": 8970,
      "campa": 8971,
      "humanity": 8972,
      "sixty": 8973,
      "drag": 8974,
      "dragon": 8975,
      "divertir": 8976,
      "kidding": 8977,
      "pierde": 8978,
      "extranjera": 8979,
      "daughters": 8980,
      "poemas": 8981,
      "construcción": 8982,
      "gorda": 8983,
      "apply": 8984,
      "papers": 8985,
      "micro": 8986,
      "sociales": 8987,
      "despedido": 8988,
      "enfermedades": 8989,
      "tráeme": 8990,
      "rompe": 8991,
      "existencia": 8992,
      "sweets": 8993,
      "química": 8994,
      "couraged": 8995,
      "divorce": 8996,
      "apologized": 8997,
      "ciertamente": 8998,
      "corriente": 8999,
      "temporada": 9000,
      "inglesa": 9001,
      "vegetari": 9002,
      "oigo": 9003,
      "pronounce": 9004,
      "survived": 9005,
      "ingenuo": 9006,
      "solicitud": 9007,
      "involuc": 9008,
      "cultural": 9009,
      "below": 9010,
      "bleeding": 9011,
      "ochenta": 9012,
      "vídeo": 9013,
      "petróleo": 9014,
      "scolded": 9015,
      "54": 9016,
      "aprobó": 9017,
      "biste": 9018,
      "fis": 9019,
      "fero": 9020,
      "fits": 9021,
      "gant": 9022,
      "pse": 9023,
      "plen": 9024,
      "tese": 9025,
      "vina": 9026,
      "wings": 9027,
      "escr": 9028,
      "arrepen": 9029,
      "arrepi": 9030,
      "anna": 9031,
      "infer": 9032,
      "indifferent": 9033,
      "els": 9034,
      "laun": 9035,
      "labios": 9036,
      "reconocer": 9037,
      "reminds": 9038,
      "mexi": 9039,
      "quedo": 9040,
      "itando": 9041,
      "gods": 9042,
      "conclu": 9043,
      "cajón": 9044,
      "micha": 9045,
      "rito": 9046,
      "riding": 9047,
      "socia": 9048,
      "subi": 9049,
      "siesta": 9050,
      "sides": 9051,
      "silly": 9052,
      "victory": 9053,
      "entreg": 9054,
      "modi": 9055,
      "moles": 9056,
      "permí": 9057,
      "tum": 9058,
      "canal": 9059,
      "manes": 9060,
      "bage": 9061,
      "pupil": 9062,
      "despreci": 9063,
      "exag": 9064,
      "nails": 9065,
      "sonreír": 9066,
      "careless": 9067,
      "fuese": 9068,
      "empu": 9069,
      "acento": 9070,
      "pru": 9071,
      "creyó": 9072,
      "mini": 9073,
      "minded": 9074,
      "duck": 9075,
      "served": 9076,
      "lug": 9077,
      "hacerle": 9078,
      "comfort": 9079,
      "comité": 9080,
      "cosecha": 9081,
      "aking": 9082,
      "huyó": 9083,
      "nutri": 9084,
      "aument": 9085,
      "saltar": 9086,
      "maldi": 9087,
      "brasi": 9088,
      "afir": 9089,
      "stage": 9090,
      "zoológico": 9091,
      "presentes": 9092,
      "mbia": 9093,
      "truly": 9094,
      "mature": 9095,
      "manage": 9096,
      "dental": 9097,
      "función": 9098,
      "escriba": 9099,
      "basic": 9100,
      "charla": 9101,
      "deberíais": 9102,
      "dejas": 9103,
      "rainy": 9104,
      "librería": 9105,
      "empez": 9106,
      "warn": 9107,
      "oídos": 9108,
      "punished": 9109,
      "amabilidad": 9110,
      "tained": 9111,
      "bloque": 9112,
      "relajar": 9113,
      "líder": 9114,
      "foods": 9115,
      "sions": 9116,
      "planeando": 9117,
      "traducciones": 9118,
      "ficación": 9119,
      "trabajaba": 9120,
      "ocurra": 9121,
      "actualmente": 9122,
      "fuerzas": 9123,
      "preparó": 9124,
      "educado": 9125,
      "encuentran": 9126,
      "volumen": 9127,
      "objetos": 9128,
      "opiniones": 9129,
      "twins": 9130,
      "recuerdos": 9131,
      "admire": 9132,
      "narrow": 9133,
      "prometo": 9134,
      "matemática": 9135,
      "pruebas": 9136,
      "obligado": 9137,
      "safety": 9138,
      "aburrida": 9139,
      "shared": 9140,
      "sáb": 9141,
      "divorced": 9142,
      "committee": 9143,
      "distinguish": 9144,
      "exciting": 9145,
      "comentario": 9146,
      "recognized": 9147,
      "reputation": 9148,
      "region": 9149,
      "emergencia": 9150,
      "crash": 9151,
      "relev": 9152,
      "suiza": 9153,
      "juzgar": 9154,
      "ocasión": 9155,
      "explosión": 9156,
      "manipu": 9157,
      "quieto": 9158,
      "apariencia": 9159,
      "occurred": 9160,
      "stamps": 9161,
      "oficial": 9162,
      "embajada": 9163,
      "razonable": 9164,
      "wisdom": 9165,
      "pongas": 9166,
      "carlsen": 9167,
      "flour": 9168,
      "professional": 9169,
      "alphabet": 9170,
      "schedule": 9171,
      "almohada": 9172,
      "austria": 9173,
      "príncipe": 9174,
      "embassy": 9175,
      "michael": 9176,
      "chap": 9177,
      "hin": 9178,
      "lent": 9179,
      "lish": 9180,
      "nara": 9181,
      "omy": 9182,
      "pí": 9183,
      "phar": 9184,
      "sano": 9185,
      "testa": 9186,
      "ertos": 9187,
      "encien": 9188,
      "dea": 9189,
      "debi": 9190,
      "alex": 9191,
      "reino": 9192,
      "tires": 9193,
      "quedes": 9194,
      "height": 9195,
      "atl": 9196,
      "cidades": 9197,
      "comiste": 9198,
      "tris": 9199,
      "dación": 9200,
      "caca": 9201,
      "mires": 9202,
      "cuan": 9203,
      "cuentas": 9204,
      "vido": 9205,
      "cebo": 9206,
      "cepill": 9207,
      "ceiling": 9208,
      "perdieron": 9209,
      "hir": 9210,
      "hipo": 9211,
      "hidden": 9212,
      "pola": 9213,
      "pollu": 9214,
      "poquito": 9215,
      "manif": 9216,
      "donald": 9217,
      "resour": 9218,
      "pig": 9219,
      "promet": 9220,
      "promesas": 9221,
      "fadil": 9222,
      "ficient": 9223,
      "traído": 9224,
      "amis": 9225,
      "preocupada": 9226,
      "acha": 9227,
      "tela": 9228,
      "create": 9229,
      "llegues": 9230,
      "luchar": 9231,
      "plaza": 9232,
      "mascul": 9233,
      "finan": 9234,
      "chill": 9235,
      "llamando": 9236,
      "thanked": 9237,
      "callado": 9238,
      "grapes": 9239,
      "gramática": 9240,
      "criti": 9241,
      "statue": 9242,
      "personalmente": 9243,
      "privado": 9244,
      "rooms": 9245,
      "oldest": 9246,
      "obvio": 9247,
      "sors": 9248,
      "podrás": 9249,
      "harsh": 9250,
      "oppon": 9251,
      "normas": 9252,
      "camina": 9253,
      "musul": 9254,
      "hunger": 9255,
      "sunglasses": 9256,
      "consiste": 9257,
      "ausente": 9258,
      "closer": 9259,
      "agri": 9260,
      "españo": 9261,
      "related": 9262,
      "extraños": 9263,
      "saliera": 9264,
      "clientes": 9265,
      "prince": 9266,
      "agotado": 9267,
      "encantaría": 9268,
      "arias": 9269,
      "visitado": 9270,
      "claus": 9271,
      "highest": 9272,
      "cabezas": 9273,
      "captu": 9274,
      "especie": 9275,
      "confidence": 9276,
      "janu": 9277,
      "asesino": 9278,
      "asesinado": 9279,
      "siguiendo": 9280,
      "primeros": 9281,
      "strangers": 9282,
      "dollar": 9283,
      "poetry": 9284,
      "trabajado": 9285,
      "soft": 9286,
      "ladder": 9287,
      "occu": 9288,
      "appli": 9289,
      "aguanto": 9290,
      "operación": 9291,
      "título": 9292,
      "lloverá": 9293,
      "obliga": 9294,
      "ejemp": 9295,
      "duermo": 9296,
      "grafías": 9297,
      "universitar": 9298,
      "utiliza": 9299,
      "ambiente": 9300,
      "experto": 9301,
      "image": 9302,
      "echado": 9303,
      "romantic": 9304,
      "adultos": 9305,
      "achieved": 9306,
      "revolución": 9307,
      "alquilar": 9308,
      "attempt": 9309,
      "community": 9310,
      "cuéntame": 9311,
      "zerland": 9312,
      "semejante": 9313,
      "húme": 9314,
      "switzerland": 9315,
      "entrance": 9316,
      "francisco": 9317,
      "alfabe": 9318,
      "alfombra": 9319,
      "),": 9320,
      "26": 9321,
      "39": 9322,
      "bborn": 9323,
      "cist": 9324,
      "dating": 9325,
      "equ": 9326,
      "fabri": 9327,
      "gía": 9328,
      "hún": 9329,
      "oting": 9330,
      "sú": 9331,
      "scare": 9332,
      "yal": 9333,
      "yell": 9334,
      "ígeno": 9335,
[...]
